#version: 0.2
▁ t
a n
h e
i n
▁t he
o n
e r
r e
▁ a
▁ o
s t
e n
a l
d i
a t
▁ I
an d
▁ c
e d
i t
a r
▁I n
▁o f
▁ w
▁ in
▁ s
▁ and
o r
i on
▁ b
▁ p
▁In di
e s
i c
▁ m
▁ f
▁ क
i s
in g
a s
en t
▁ l
o m
▁Indi a
= =
▁ e
o u
▁t o
▁ 1
া র
▁ स
▁ T
l y
▁ h
▁ d
u r
e c
্ র
▁ re
য ়
▁ n
▁ g
▁ म
▁ A
i l
t h
▁ ह
v er
▁ ==
ा र
▁ স
▁ C
o l
u l
▁T he
r i
▁ प
্ য
् र
r a
▁ B
▁ প
at ion
▁ S
▁ ব
a m
▁क े
▁ 2
r o
v e
l e
ে র
▁ भ
े ं
s ,
c e
u t
▁1 9
▁ is
i st
▁ (
▁Indi an
▁b y
e t
a st
a d
i m
▁म ें
i g
g e
0 0
▁t h
u s
▁== =
▁ ভ
▁ P
o w
i d
▁ह ै
s .
u n
▁ M
▁ ক
it h
▁f or
i r
' s
u c
্ ত
् य
▁ r
▁b e
m ent
▁ ప
్ ర
at e
▁c on
▁w ith
i es
o p
▁w as
t ion
▁ अ
e m
▁a s
t er
ার ত
া ন
▁w h
▁ st
▁m o
▁ E
ार त
▁ভ ারত
▁भ ारत
re s
ా ర
▁ অ
on g
r om
▁ ज
▁ न
▁ ब
a in
र ्
▁ व
▁ এ
▁ it
ি ক
ic al
▁e x
e st
র ্
▁ di
ల ు
he r
▁ H
▁ D
▁ G
▁ an
▁ द
▁ হ
an g
य ा
ो ं
a c
d er
▁ ম
s e
▁ N
▁o r
a b
ि क
i al
ic h
▁f rom
▁h as
u m
g h
▁ औ
▁ on
a y
▁ र
il l
▁औ र
ি ত
it y
or t
▁প ্র
l d
u p
▁ দ
▁a r
▁2 0
▁wh ich
u d
् त
▁ ও
▁ స
▁ un
ा न
i ve
u b
▁ আ
c on
u re
▁a re
▁p ar
▁ క
a k
o c
r it
ul t
▁क ी
া ল
l i
▁ त
▁प ्र
▁ ন
an t
▁in c
o ver
ల ో
▁India 's
er e
▁it s
a ,
o t
d u
▁क ा
▁a l
▁c om
e l
ou n
্ ষ
i v
্ ব
▁ వ
ar y
▁ব ি
en d
్ య
▁ v
▁ উ
▁w ere
ী য়
at ed
▁ మ
▁स े
▁है ।
▁ W
▁ భ
র া
e ar
ा ज
ন ্
c h
▁c ent
▁d e
ট ি
▁ U
o d
ar ge
s i
▁c o
is m
y ,
న ్
an s
es ,
ी य
over n
m p
ि या
ক ্ষ
ద ి
▁ ग
▁w or
ou gh
ou r
o g
▁ R
▁ জ
ec t
▁par t
f ter
ద ే
▁ आ
▁c h
▁in t
▁s p
▁p ro
▁con t
ి ం
ou th
▁H in
a g
ou s
con om
దే శ
i ,
ా ల
▁a t
a ge
त ा
थ ा
overn ment
ত ি
▁ उ
▁ ర
al ly
am e
a v
् ष
ి క
c t
i f
ర ్
స ్
l ow
o s
ा ल
an ce
▁b ec
ur ing
▁ ल
is h
as s
o re
न ा
▁20 1
া ম
▁ J
▁ শ
▁C h
ut ion
▁ప ్ర
ార త
a j
b er
ে শ
▁ K
▁p er
▁m ar
▁e conom
▁for m
▁int o
a p
▁India ,
res s
▁ इ
▁ श
▁प र
▁భ ారత
an y
er n
▁re g
ill ion
▁ అ
▁p l
া য়
st it
▁व ि
m er
r y
ang u
న్ న
ా లు
▁ k
▁a d
▁c l
▁s e
▁s ub
▁l e
▁l arge
▁re l
▁cent ur
স ্
▁क ो
▁स ं
i re
t s
ক ে
ষ ্
in ist
m e
▁ y
▁p op
▁e l
য় ে
র ে
् व
▁ V
▁ ए
en ce
▁है ं
c c
e ,
▁ F
▁ গ
en er
▁l angu
▁g overnment
া ত
p ort
া ব
▁Hin du
l ud
q u
▁ O
re as
▁p ri
▁d ec
▁ar t
▁wor ld
▁reg ion
▁pop ul
न ्
▁ য
ir st
o k
at es
▁A si
) ,
d uc
e w
त ्र
▁In d
om e
a ve
p p
t her
ল ি
▁t ra
re at
▁a g
▁s y
▁f irst
▁com p
▁y ear
s o
or d
di tion
▁न े
der n
ि य
గ ా
al l
▁क र
▁ভারত ের
f f
o th
v ed
▁ 3
▁ ১
▁ end
re d
▁s h
▁India .
▁स ा
ec tion
uc h
▁inc lud
ि त
ব ি
▁ 5
▁ রা
▁2 00
ड ़
न े
▁ ত
ro w
ig h
ig n
1 ,
▁ "
▁ L
ది .
stit ution
g an
w e
▁ य
▁ ఉ
▁o ver
st em
▁d uring
▁re s
us ed
mp ire
▁bec ame
▁sy stem
্ চ
▁ 7
h i
h ar
क ्ष
त ि
ছ ে
▁ च
t ed
న ి
▁ ri
▁b ut
▁h ad
▁h ave
ur al
ver s
▁স ং
▁প র
ation al
▁be en
est ern
▁र ाज
▁al so
ন্ দ
▁U n
aj or
inist er
ा स
े श
▁ జ
র্ ব
ा द
া হ
▁ 4
▁19 5
c es
r al
y .
ా య
in e
▁19 6
d h
r ic
् ट
▁in f
▁s up
▁m e
ow er
▁con s
▁mo re
▁rel ig
క ్
ా త
▁এ ক
ि स
▁S outh
id e
ong ress
w o
ा ष
▁a fter
at ic
▁s uch
▁p e
▁p ol
es .
▁m illion
▁m inister
▁l at
▁n um
▁g ener
▁th at
▁mo st
▁mo dern
▁inc reas
oun d
ষ্ ট
গ ু
া স
▁ থ
▁20 2
ি ল
im al
a .
s h
t in
▁ చ
▁স ম
▁भारत ीय
దేశ ం
▁इ स
m ong
p t
ా న
▁ he
▁ im
▁t wo
▁c a
or th
▁b oth
▁l ong
▁स म
▁19 9
▁r ul
▁di s
▁pri me
▁tra dition
vers ity
l ic
క ు
ন ্ত
▁ ই
ist or
C E
o -
u st
ল ে
్ ట
re n
en s
it ion
▁C ongress
▁ক রে
b an
p h
ধ ্য
▁ १
▁c ast
▁s c
▁s er
▁s oc
▁m ajor
ur ban
▁B CE
ist an
et we
▁E mpire
▁un der
ult ure
▁cl ass
▁year s
etwe en
i k
ঙ ্
দ ্
న ు
్ వ
▁স াল
▁ভারত ীয়
▁हैं ।
e p
া দ
▁A n
▁C on
▁B rit
00 0
i an
o se
in ce
ol og
▁त था
▁ए क
▁Brit ish
r ough
u res
ं ग
▁ urban
he d
▁the ir
on d
▁c oun
▁of f
is ation
▁n ot
▁g row
▁B ud
am ent
ve l
le ar
▁th is
uc lear
▁अ न
▁ex p
▁el ection
▁langu age
▁popul ation
▁num ber
▁Bud dh
া প
ৃ ত
ం డ
ి న
▁ ఇ
▁ह ु
▁भ ी
▁ज ा
▁হ য়
0 ,
6 %
e f
ক ার
ీ య
▁ ২
en g
ou t
▁ন ি
l o
con tin
el l
ag es
contin ent
e .
ক ্ত
ড ়
ে কে
▁t er
re e
en c
▁s outh
▁b etween
▁m any
▁f ol
▁l and
▁e ar
▁d ance
▁re c
▁n ort
▁n orth
▁ह ो
ri b
▁be gan
ical ly
ial ly
ak istan
ism ,
low ing
ধ ান
▁অ ন
न् द
ঙ্ গ
ত া
০ ০
▁19 4
ub lic
▁১ ৯
▁থ েকে
m on
n i
t ing
v i
্ প
త ి
▁উ প
▁জ ন
ిం చ
স্ থ
c i
l u
स े
ह ा
ব ং
ি য়
▁ j
▁ ra
▁ up
▁t im
on -
▁a pp
▁I t
it e
it ed
▁f ore
▁e ast
▁1 8
▁re p
il it
ad e
▁P akistan
्य ा
ies ,
her n
ang es
▁econom ic
mer g
▁world 's
▁lat er
▁cast e
▁nort hern
▁न ि
र् व
▁এ বং
▁দ েশ
స్ త
গু লি
7 ,
g in
क ार
া ধ
▁ চ
ar d
र् म
▁ম ধ্য
▁বি শ
দ্ ধ
र ा
▁ র
▁ ఆ
it er
▁C E
ul ar
ation s
a w
a ce
k et
p er
u gh
ि ल
স ্ত
ం త
ద ్
▁ ফ
▁the re
▁a b
▁w estern
▁s ec
▁s ince
▁p ower
om in
▁h um
▁A l
▁A fter
▁C om
ra ph
▁B y
▁ব া
▁r ate
▁ex t
▁আ ই
▁sp ec
▁sub continent
▁inf lu
▁pe op
▁increas ed
▁class ical
▁coun t
vel op
स ्
এ স
ঞ ্চ
ত ্ত
ী ন
ల ్
▁T h
S $
ు లు
▁ খ
or m
is e
▁M o
▁ভারত ে
▁व र्
▁এ ই
▁ర ా
য়ে ছে
l im
s s
त े
ा म
ం గ
ర ి
▁ త
at ive
▁क िया
is ed
as ,
am il
- l
e x
e ver
h m
i od
p l
r ol
s l
t y
v ent
ं त्र
ध िक
र ी
▁ 6
he m
er ed
▁a mong
▁o cc
▁c our
ar i
▁w ar
ion s
es p
ic e
ic s
▁m at
▁m us
▁m id
▁m ilit
▁l if
▁l iter
▁e merg
▁h istor
ec h
▁n ew
▁n uclear
▁19 8
▁th an
ow n
▁M ugh
ate ly
ies .
ter n
▁st ate
▁হ ি
ab l
ab le
▁par li
▁de velop
ect ed
▁Ch in
▁per iod
▁large st
▁রা জ
▁ri ver
▁gener al
ci ent
▁peop le
এস বি
▁Mugh al
▁parli ament
0 .
ी न
ং শ
ి .
▁M a
p le
त ी
ু র
ర ు
▁ న
▁ह ि
্য া
▁P l
▁त क
▁U S$
▁201 1
▁এক টি
ষ্ট ্র
▁বিশ ্ব
5 ,
5 .
k rit
এ ন
ল া
▁ ध
▁ ద
▁ బ
es s
▁1 2
ur op
il d
▁S t
▁S ans
▁राज ्य
▁সাল ে
▁Sans krit
- d
j ab
o ,
r on
t en
ं ध
क े
ि ण
ం ట
he n
▁the m
er al
en ni
di c
▁s et
or ld
▁b as
▁e st
▁re f
▁n on-
▁B eng
ation ,
ve ment
▁th ough
▁th rough
▁P un
▁con stitution
▁E ast
ill enni
ult an
▁W orld
og raph
ిం ది.
▁le ad
▁includ ing
▁ca used
▁soc ial
▁হয় ।
▁milit ary
▁Beng al
▁Pun jab
illenni um
ृ त
మ ు
▁ 9
ার ্
▁स ्
▁19 7
▁వ ి
t ,
ध ान
ি ন
ం లో
ు త
ై న
er s
▁স র
▁द ेश
▁భారత దేశం
▁सा थ
ाष ा
▁আই এসবি
▁আইএসবি এন
) .
4 %
e at
o od
क ा
स ्त
ू प
▁ గ
us lim
ir d
▁D el
ac k
▁స ం
▁उ त
ন্দ ্র
▁१ ९
▁Com p
a u
a red
i ed
t a
ो ग
ম া
ూ డ
▁ 8
▁ था
▁t r
an ge
he ast
re w
re ad
▁o ther
▁c r
▁s ome
▁s ign
▁b illion
▁p re
▁m ain
▁m illennium
▁f ar
ing ,
ent ral
▁l ed
▁e mp
▁स र
ly ,
▁g r
▁g ra
▁S ik
ro c
ow ever
id ent
▁r ural
▁wh o
▁st y
▁ज न
▁di re
▁H imal
▁on e
rit or
▁al l
iv il
▁de f
arge st
▁Asi a
duc ed
▁Ind us
▁Ind o-
ord ing
क्ष िण
▁পর ি
▁relig i
▁pol it
▁ser ved
▁fore st
-l argest
▁mat hem
▁mus ic
▁lif e
owever ,
▁Himal ay
1 .
व ा
ह ु
ी ं
প ্র
া ক
া গ
▁ ধ
▁c ol
or k
▁प ू
▁अ प
▁द क्षिण
्त र
्ष े
ాయ ి.
ঞ্চ ল
▁सर कार
ओ ं
भ ा
র ্ত
া চ
ু ক্ত
ి త
▁ ఎ
▁ శ
▁क ्षे
्र े
▁S h
▁E n
▁অ ব
▁ज िस
▁প্র ধান
▁ग या
▁क्षे त्र
r u
द ्
ल ी
ম ান
ি র
ো গ
০ -
১ ৯
ం గా
ం ది.
ధ ిక
an c
an u
▁ব ৃ
▁ब ाद
▁सा म
▁य ह
క్ ష
▁Pl ate
1 9
2 ,
c ri
d le
e h
e an
g l
k ed
m it
o di
p ut
t il
v id
क ्त
ढ ़
ि म
দ ের
– 2
▁ २
▁ en
▁ us
▁ used
▁t ech
▁a cc
▁o ut
▁I sl
▁c it
▁c ulture
ar n
▁w e
▁w om
▁w ide
▁s ur
▁m ade
▁f ound
▁l oc
om et
▁h igh
্র িক
▁n o
▁g reat
ver y
▁C entral
▁भ ाषा
▁th ird
▁M uslim
ment s
▁as s
ార ు
র্ থ
▁G and
du st
▁cent ral
▁co al
▁co ast
▁co ok
▁cont rib
▁cont rol
▁J ain
▁econom y
▁pl ain
▁वि श
▁centur y,
▁ag ric
▁includ e
▁ఉ న్న
ন্ত ্র
▁grow th
▁ter ritor
▁fol lowing
▁hum an
▁count ry
▁cour t
▁emerg ed
▁हि न्द
ultan ate
▁Comp any
▁tr ans
▁Sik h
▁religi ous
▁polit ical
▁wom en
3 .
t or
ं द
न ी
ब से
ा ं
ु ख
् च
গ ্র
ী র
▁स बसे
▁( স
াহ া
▁অন ্য
▁মধ্য ে
▁সর কার
l ed
ট ার
ত ে
স ে
ূ র্ব
ట ి
in s
▁क ार
▁1 7
্য )
em oc
ార ్
▁ब हु
াব ে
▁রা ষ্ট্র
% .
6 ,
n olog
o st
v en
v ing
क र
ल े
ত ম
ম ি
ప ు
వ ి
్ చ
▁ थ
ri gin
▁E urop
ac h
▁స ా
ult ural
▁प्र ा
igh t
्ट ्र
ाष ्ट्र
▁Del hi
- s
0 %
J P
a f
a re
c tion
i z
m ain
o in
u ally
v ol
w est
w ork
y a
ত ্র
স ং
্ থ
▁ |
▁ ent
▁ her
▁ esp
an k
▁the y
re ated
▁o rigin
al s
al le
▁I ts
▁c ap
▁c ens
ar at
▁in dust
▁b i
▁b ir
▁p ain
ic ial
▁f ed
▁f ig
▁f eat
▁l i
▁l ast
▁d ra
ec ially
▁re main
▁n e
▁g rew
ver se
▁স ঙ্গ
ul pt
▁The re
▁प ा
ist ic
ad es
un d
ান ্ত
▁st at
▁mo vement
▁ex port
▁di ff
▁di versity
▁G anges
▁an imal
▁an cient
▁হ ল
▁N eh
िक ा
ity ,
▁ar m
▁ar ch
▁are as
iv es
ाज ्य
▁de v
▁part y
▁Hin di
if ic
▁mar ri
▁le g
▁centur y
▁ri gh
▁Un ited
▁sup port
▁sc ulpt
▁major ity
▁Con stitution
ंग ्रे
▁ear ly
▁sec ond
▁occ up
▁liter ac
▁parliament ary
▁dire ct
▁En gl
▁loc al
▁Gand hi
াহা য
▁esp ecially
▁pain ting
▁Neh ru
▁Engl ish
) ।
3 ,
i et
क ी
ब ंध
म ा
ल ा
ि ए
ম ে
ం ,
ష ్ట
▁ Y
▁ फ
▁ హ
▁1 5
্র ি
▁স ্ব
▁है ,
▁अ धिक
▁द ो
▁ম হ
▁প্র তি
▁ত ার
▁194 7,
द् ध
▁(স াহায
▁(সাহায ্য)
प ्त
ु र
् प
ব ে
া ই
া জ
ু ন
ar ,
▁1 ,
▁A ct
▁S e
▁ব ৈ
▁ক ে
र् थ
▁G overnment
▁క ూడ
▁ন াম
iv ed
▁श ास
▁वर् ष
▁ध र्म
4 .
6 .
b al
द ेश
र े
स ा
ि न
ত িক
দ ি
ভ ি
া ষ
ূ ল
త ్
▁ –
▁ దేశ
er ,
ার ণ
▁T amil
্য ার
ra ,
▁P er
▁र ूप
స్ థ
▁ప్ర ా
▁स् थ
9 .
D P
c ent
d om
d am
d ay
f t
f ore
h at
h i,
i )
i x
m in
m inist
n ed
p ed
p ro
s ;
u al
w n
y an
द ी
చ ్చ
ట ్ట
▁ घ
▁ ఈ
▁ ed
▁ దేశం
▁ roc
an ces
er s,
▁a ir
st r
en ins
al th
di an
at i
at ing
and s
▁c ar
▁c reated
ed ,
▁of ten
▁w on
▁w ell
▁in d
▁in ter
▁s m
▁s ou
▁s ultanate
▁p res
▁p rom
▁p enins
is hed
ing s
ing dom
▁l ow
▁l ower
ou p
ou ld
▁1 .
ur ther
ec ut
▁n ational
▁A cc
▁A mong
▁The se
ra ct
▁B i
▁B JP
▁ব ্য
am m
le g
▁Indian s
et ic
▁ক র
▁r ates
em ber
▁wh ose
▁st ates
▁ज ो
ain s
▁ex ecut
▁D uring
▁হ য়েছে
se qu
▁N ational
▁र ाष्ट्र
িত ে
▁un ion
ant s
▁com mer
▁com mon
▁W estern
ন্ ন
od y
ক্ষ া
▁cont in
os ed
▁bec ome
▁mar ket
▁se ver
▁centur ies
▁langu ages
▁dec l
▁region al
▁popul ar
ther n
िय ों
all ed
▁end em
▁జ ాత
▁long er
▁করে ।
▁An dam
▁Buddh ist
out heast
▁ear li
▁east ern
▁rep ublic
▁influ enc
tern al
▁Chin a
▁রাজ ্য
▁bas ed
▁sty l
▁mathem atic
▁tech nolog
▁विश ्व
▁fed eral
ific ant
▁Per si
minist r
▁ed uc
▁sou thern
▁Acc ording
sequ ent
▁Andam an
a i
f ord
x ford
ज ा
ছ িল
ন ের
ం చ
య ా
్ ల
▁ ఒ
▁ ০-
▁न ाम
▁భారత ీయ
▁২ ০০
▁రా జ
মা ণ
▁पू र्व
▁কে ন্দ্র
म ्
ন া
য োগ
త ర
ల ి
▁ ড
▁ ল
at a
ra c
▁ভ াষ
▁ক ো
▁অ ঞ্চল
▁ब ड़
▁H istor
▁భ ా
ক্ষ ি
▁ర ై
▁च ु
▁195 0
লে খ
▁अन ु
▁हु आ
▁हु ई
8 .
o ok
u e
क ि
म ें
म ान
व ि
स ार
ा ग
ै न
ो ड़
० ०
খ ্যা
গ ত
চ িত
ন ি
স ি
ৃ তি
ো ট
ా బ
▁ ট
▁ ని
in c
at ure
is s
is ing
▁स ्व
▁স াম
▁স র্ব
▁স ্থ
▁B ra
am ,
▁19 3
▁ক ্ষ
్ర ీ
র্ ণ
▁द े
▁N ew
▁మ ొ
▁R aj
▁জ াত
ষ্ ঠ
▁O xford
ছে ।
ep end
▁जा ता
ত্ত র
ారు .
ష్ట ్ర
- g
- m
1 %
4 ,
a h
a x
a di
b le
b ian
c an
d e
d ed
e ak
e ograph
g en
i ans
i versity
k s
m b
m as
m ary
n own
o ol
p tion
p ical
t le
t ure
v al
w an
ध ्य
ভ ূ
ল ্
া ট
া ড়
ী প
ে ল
্ ড
ం ద
▁ z
▁t em
▁t rib
▁t ex
he s
er ation
re di
▁a ff
▁o b
▁o ld
al e
al s,
at her
▁c ur
▁c ivil
ar s
▁w in
▁w est
▁in di
▁s ing
▁s ch
or s
ion s,
▁b l
▁m en
▁m ak
▁m ember
▁f l
▁f ast
▁f ac
▁f ive
▁f our
▁f amil
▁f urther
▁क ु
is l
as hm
▁e th
▁e mpire
▁e very
ou se
▁1 0
▁स ि
▁h owever,
▁d omin
▁re n
▁n ow
▁g en
▁g ar
▁g lo
▁म ान
▁A f
▁A ra
il ity
th ough
ार ी
▁স া
▁B har
▁S outheast
▁2 .
ro ss
▁भ ू
ist s
▁th ree
▁r ise
▁ప ే
▁con duc
▁st r
▁এ র
র্ ম
▁di st
▁G DP
▁an n
▁द िया
ang ered
▁ar ound
▁un til
ive ly
li f
li ef
▁ন ে
ant ed
▁al ong
▁v ast
▁v ill
▁v ari
▁wor n
▁ch ar
▁sp read
▁pro t
ిక ి
os s
▁J anu
▁শ তা
▁K ashm
▁form ed
▁k ingdom
▁ad ministr
▁sub sequent
▁le ft
স্ ক
▁art ,
▁comp le
▁end angered
▁res p
▁system ,
▁Un ion
▁Un iversity
▁cons id
▁relig ions
▁pol ic
▁increas ing
▁he ld
▁im port
▁ca us
▁rul e
▁tradition al
▁off icial
▁election ,
lo y
▁ter m
▁rec ord
▁tim e
▁tim es
গুলি র
▁CE ,
ద్ ధ
▁Al though
▁spec ies,
स् क
ల్ ల
▁Th is
▁రా ష్ట్ర
▁mid dle
ild lif
▁Sanskrit ,
▁est im
▁est abl
▁lead ing
▁sign ificant
▁emp loy
▁gr oup
▁wide ly
▁sur v
▁coal ition
▁bir th
▁li ber
▁diff er
▁leg isl
▁sculpt ure
▁literac y
▁शास न
▁roc k
▁ind epend
▁penins ular
▁execut ive
▁earli est
▁influenc ed
▁Persi an
▁educ ation
▁Histor y
ক্ষি ণ
▁Bra hm
▁Janu ary
▁শতা ংশ
4 2
i a
{ {
} :
} }:
य ु
र िक
ष ्
ह ीं
ी ,
ो ल
দ েশ
ন ।
ভ াবে
ী ত
ু প
ে ত্র
ఖ ్య
న ే
మ ైన
వ ా
ా క
▁ ई
▁ ड
▁ ల
▁ {{
▁A r
▁प ार
্য ের
▁P res
్ర ి
▁অ র্থ
▁ब ढ़
▁হ য়ে
▁দ ্ব
▁స ్
ान े
▁వ ్య
▁उ प
ना व
াম ি
▁భారత దేశ
▁అ ధిక
ాలు ,
▁য ু
▁य ु
াধ ীন
ద్ ద
▁বিশ্ব ের
▁राज्य ों
▁उत ्तर
▁বৃ হ
ंद ्र
▁జాత ీయ
▁জাত ীয়
3 %
8 ,
ँ च
ं ड
द ान
म ुख
् म
ত ার
ত ্য
ন ৈ
প ি
য ুক্ত
ি খ
ু ষ
ে ।
০ ১
డ ి
ణ ా
న ా
▁ छ
▁ ঘ
▁ లో
▁म ह
्र ी
▁প া
▁के ंद्र
▁( ২
▁ক ্র
▁ক রা
▁ब न
▁र ह
▁দ ু
oc i
▁प्र मुख
▁উ ৎ
▁উ ত্তর
▁উ ল্
▁మ ు
▁R e
ిం ద
ర్ వ
▁ल िए
স্ ট
▁গ ণ
▁सम य
▁अन ्य
ండ ి
0, 000
▁র য়েছে
ులు ,
নৈ তিক
) ;
0 1
2 0
7 %
7 .
9 %
c ast
p .
p or
t al
w ard
च ीन
ज ी
ट े
श िया
श ्च
ी प
চ ্চ
ব াহ
র িক
া ,
ু ত
্ দ
త ో
ధ ్య
ప ా
ు ల
్ ‌
er v
at or
ar a
ion ,
ing h
as h
▁1 3
▁म िल
▁A ss
ार ा
ol d
ol ence
▁প ্যার
▁S ingh
▁অ ধ
▁ब ना
▁D es
▁G u
▁द ्व
▁প্র থ
▁দ ক্ষিণ
ak sh
iv ing
তি হ
▁सं घ
▁हैं ,
▁Asi an
▁5 0
▁ఉ ంది.
ces s
▁১৯ ৯
ত্ত ম
▁हिन्द ी
▁সঙ্গ ে
▁ఒ క
▁స్ థ
ামি টার
▁উল্ লেখ
▁প্যার ামিটার
- b
- f
- r
a il
a ist
a i,
c ial
c hed
c ross
e ly
e ated
e qu
g u
g y
h an
i -
l ine
m ace
m iss
o .
o tion
p ic
r an
r y,
r atic
t e
t ic
t ou
t ain
t y,
u ed
x im
क ाल
द ्य
ब ्
व ं
ह र
ी ।
ो क
ক াল
ব স্থ
ব র্ত
র ণ
শ ্চ
শ িয়
ি জ
ে স
ం ది
డ ు
భ ా
మ ా
వ స్థ
ా న్
▁ ख
▁ ఏ
▁ er
▁ ve
▁ qu
▁t ur
▁t ax
an i
he re
in ed
in ing
in es,
on s
on es
er c
er t
er ing
re me
en ces
di s
at ical
▁c an
▁c he
▁c ult
▁c reat
▁c alled
it es
it ect
ar ies
▁w rit
▁w ear
▁w hen
▁w aist
▁in vol
▁s o
▁s um
▁s af
or n
▁b ody
▁p har
▁p ublic
▁p ract
▁m an
▁m on
▁m ult
▁f am
▁f low
▁f und
▁l o
▁l ay
▁e qu
ou l
▁to ok
▁h is
▁d er
▁d emoc
▁d ances
▁re t
▁re duced
▁n at
▁n ear
▁A s
▁== ==
▁C ivil
ol e
ol id
▁The ir
ri al
ra vi
ra mas
▁B h
am p
am ic
ro pical
ro xim
ut ed
ut ical
▁( c
et work
ast ri
ig r
▁ভ ূ
▁P ar
▁P ro
▁M any
्य व
▁be low
▁be fore
▁with in
▁अ म
▁st e
▁ब ी
▁ex c
▁ex ch
▁ex ternal
▁di verse
▁H owever,
▁D e
▁D ec
▁D ravi
▁G up
▁G ree
▁G hat
▁द श
▁হ ার
ac ted
der s
▁ম ান
▁N uclear
ab ly
ab ility
▁र हा
▁প্র াচ
▁দ ে
्त ान
▁క ా
ult ing
li ed
li ance
du ally
el f
▁మ ార్
▁W est
ism .
ক্ষ র
▁part ition
▁ch anges
▁int ro
▁sp ort
▁pro v
▁pro duc
av ing
if ied
ाल ी
▁ल ग
▁pl ate
▁pl ay
▁pl ace
న్న ి
▁k nown
▁rel ations
▁सं स्क
▁V alle
▁F ore
▁langu ag
▁Hindu st
▁Hindu ism
▁Hindu ism,
reas ing
▁dec ades
▁region s
▁Asi a,
▁ag ain
▁ag o.
▁comp osed
िय े
▁कर ने
▁sh ow
▁res ulting
▁195 0,
▁196 5,
ric a
▁sup p
▁me at
▁cons olid
▁relig ion
िस ्तान
▁pol l
▁minister .
▁সম ্প
▁he ad
▁rul e.
▁dis put
▁tradition ally
ren t
▁sc ri
▁ser v
▁soc iet
▁BCE ,
▁সাল ের
▁An cient
▁Con stit
ament al
▁Buddh ism
▁south -
▁dance -d
▁অন ু
▁j ust
▁up per
▁app roxim
▁fore ign
▁Pakistan .
▁ab out
▁sec ular
▁Al l
▁ext ant
▁ext ens
▁spec ies
▁influ ence
vent ion
▁mid -
tern ational
▁develop ed
▁develop ment
▁Ma ur
▁12 00
▁St ates
▁ref orm
▁though t
▁Punjab ,
▁देश ों
▁భారతదేశం లో
▁था ।
▁cr ust
ident ,
▁Indo- A
▁Himalay as
▁ఎ న్న
▁Plate au
odi versity
vid ed
▁en acted
▁cit ies
▁great er
▁third -largest
▁cook ed
▁cook ing
▁contrib ution
▁agric ulture
▁agric ultural
▁ఉన్న ాయి.
▁Europ ean
▁cap it
▁cens us
▁indust ry
▁fig ure
▁feat ures
▁पा क
▁arch itect
▁areas .
▁righ ts
▁direct ly
▁sm all
▁commer cial
▁common ly
▁contin ued
▁technolog y
▁old est
▁indi gen
▁sing le
▁sch ool
▁famil ies
▁ren ew
▁glo bal
▁Af rica
▁Bhar at
▁conduc ted
▁Kashm ir
▁kingdom s
▁import ant
▁record ed
▁estim ated
▁establ ished
▁differ ent
▁বৃহ ত্তম
▁(২ ০০
श्च िम
▁Gu j
mace utical
tou ch
▁phar maceutical
▁fund amental
▁Dravi dian
▁Valle y
▁dance-d ramas
▁approxim ately
ज ़
त ंत्र
स ी
জ াত
প ূর্ব
ব াস
ো ল
্ ম
ట ు
డ ్
ధ ాన
ర ా
ి న్న
ీ ,
ె ండ
▁ या
an n
in ,
▁क ई
▁म ै
▁म ध्य
▁স হ
▁স ি
▁C l
▁प ह
▁প ূর্ব
▁ব ছ
▁2 6
▁( ১৯
్ర మ
▁अ ंग्रे
ান ্য
▁ज ी
▁न हीं
▁व िक
▁స ్వ
▁వ చ్చ
▁বি চ
▁বি জ
▁आ ध
▁শ াস
▁ए शिया
▁সং স্ক
▁इस के
▁ই উ
▁हु ए
▁हो ता
▁জন সং
▁नि र्म
▁হি ন্দ
ার্ ক
▁অন্য ান্য
▁कार ण
▁హ ింద
▁चु नाव
▁अनु सार
শ্চ ি
▁প্রাচ ীন
▁మార్ గ
▁पाक िस्तान
- এ
2 %
2 .
I n
e di
f orm
l a
ट ि
त िक
न ों
प ा
म ंत्र
र ाज्य
ा ण
ि व
ि न्
ও য়
ক ্
দ ী
প র
ভ াগ
ম ্ব
হ ু
্ জ
ం బ
▁ $
▁ ऊ
▁ ৫
▁स ैन
▁म ु
▁ह ी
▁ह ाल
ol it
्र ाज्य
▁প শ্চি
▁2 5
▁( 19
్ర ా
▁ज ल
▁न ्या
र् ण
▁এ শিয়
র্ ক
▁D emoc
▁క ో
▁प्र ति
▁మ త
▁से ना
ন্ ধ
िया ँ
▁ल ोक
▁গ ঠ
▁कर ोड़
ड़ ा
क्ष ा
িল ্প
▁చ ె
ాన ికి
▁18 5
াধ িক
ంత ్ర
▁ফ লে
स् था
▁Mo dern
▁অব স্থ
▁गया ।
▁साम ्राज्य
▁भाषा ओं
▁प्रा चीन
▁স্ব াধীন
▁కూడ ా
वि धान
▁दे ख
▁भू म
▁అధిక ార
▁दश क
" .
% ,
8 %
P A
b ack
c it
i b
k ,
o b
ं प
ख ्या
त ्य
य ोग
र ब
श ास
स ं
स द
ক ্র
ঞ ্জ
ড ি
ব ল
র ো
া শ
ী ল
ী তি
ু ট
ে ট
గ ు
ట ్
త ్య
ప ంచ
ర ్య
▁ ओ
▁ ৪
en se
at es,
ic tor
ার ে
▁स क
▁re port
য় ন
▁A t
▁A sh
ri d
▁प ु
▁प श्चिम
ation }}:
ro ad
et er
▁P p.
▁ప ార
▁E ar
▁ब ा
र् ष
র্ ষ
▁ম া
▁ম ু
িত ।
▁প্র স্ত
▁দ শ
▁प्र धान
▁प्र देश
▁మ ధ్య
▁W ar
ক্ষ ম
▁ग ण
▁ग ु
og n
ect ive
ాల ్
స్ క
▁ప్ర ధాన
▁ప్ర పంచ
▁K al
ায় ।
▁सं बंध
▁सं विधान
▁য দি
▁Asi a.
▁ने त
াদ েশ
▁দেশ ের
▁किया ।
▁ద క్ష
▁శ ా
১৯ -
–2 01
ান্ত ্রিক
ंग्रे स
मा ण
▁ప్రా ంత
▁రై లు
▁स्व तंत्र
▁স্থ াপ
াড় া
▁పే రు
েত্র ে
▁{{ cit
▁पार ्ट
▁द्व ारा
्यव स्था
▁बी च
▁मै दान
▁বছ র
▁(১৯ ৯
▁चुनाव ों
▁{{cit ation}}:
, 000
- k
4 00
8 –2
D A
E urop
H O
a ic
a fter
a ren
b ly
b ell
c ed
d s
d ar
e y
e z
e ign
e dic
e val
g er
g th
g et
g enc
h ā
i ly
j ect
j o-
k h
k en
l and
l ong
l ades
m ar
m end
n o
n ings
p en
p ur
p ay
p end
p ass
p ts
t he
t s,
t y.
u es
u is
u ent
u s,
u ous
v as
w ay
y a,
ई ।
च ्च
ण ्
प ू
ब र
म ाल
ा य
ृ ष
ॉ ंग्रेस
ঁ চ
জ ান
ত ান্ত্রিক
দ ্র
ব ার
ম ্প
া কে
ী ।
త ం
త ్వ
ద ాయ
ప ్
స ి
ి ,
ి స్త
ు క
ు న్న
— w
▁ ৬
▁ ir
▁ ener
▁ 0.
▁ very
▁t e
▁t est
▁t ak
▁t ropical
an ch
an ag
an ata
in e,
▁the n
▁the se
on om
on ial
er i
er s.
er ch
re .
re g
re en
▁a ver
▁a ge
▁a cross
▁o pp
en ed
al i
al w
al es
al ity
di ately
at s
and ,
and ing
▁c .
▁c al
▁c or
▁c le
▁c rit
▁c ame
▁c ultural
▁c ould
it at
it her
it ud
it es,
▁w ent
▁w ould
▁w ildlif
▁in st
▁in it
▁in stitution
▁in equ
▁s il
▁s im
▁s over
▁s ect
▁s av
▁s low
▁s ari
▁s omet
▁s ix
or ce
or ter
▁b u
▁b and
▁b or
▁b ri
▁b ack
▁b road
▁p r
▁p at
▁p et
▁p ort
▁p over
▁p red
▁Indi ra
es c
ic ,
ic es
ic ob
▁m in
▁m al
▁m uch
▁m i)
▁m amm
▁m igr
▁m erch
▁f ra
▁f em
▁f all
▁क ्र
is .
is en
is es
ing .
▁l im
▁l ik
▁l aw
▁l oss
om ing
om est
▁e ff
▁e ight
▁to day
▁to wn
▁to tal
▁1 6
ার ি
▁T em
▁T reat
▁T har
▁h y
▁h ig
▁h ab
▁h ub
▁h aving
▁d ri
ur as
ur id
ur red
▁re ac
▁re ven
▁n ation
▁n ame
▁n omin
▁g as
▁g ain
▁g od
▁g ave
▁g ood
▁म ा
▁म ुख
▁A k
il omet
il way
▁স াধ
ul ed
ri g
▁B ang
▁B ay
▁প ৃ
▁প র্ব
▁প ুর
▁S he
▁S ri
am ple
▁2 6%
ce an
ut e
▁19 2
▁is ol
et t
im es
▁th reat
▁th ose
us h
us cri
▁P all
id dle
un e
un g
▁M al
▁M yan
▁M iddle
uc ial
्य ों
▁r ich
▁r ange
▁r ather
▁be ing
▁be lief
▁be long
▁con ce
op eration
▁अ भ
em ograph
em bly
▁st ren
▁mo ist
▁E x
▁E conom
▁E uras
res ent
rom ise
▁ब ्र
▁এ ছ
িক ে
▁ex tin
▁ex ample
▁di v
▁D al
▁D ance
▁D emograph
▁G eograph
▁an ot
ang ed
ac ed
ac ter
▁ম ূল
▁N orth
▁N on-
▁N icob
▁or gan
ab ad
um b
▁un it
ure d
▁క ే
▁క ్రీ
ot t
ot ed
iv ity
্ব ীপ
▁বি স্ত
▁v i
▁v is
▁v arn
▁v ictor
▁co s
▁part s
▁part ic
▁आ र्थ
▁ch os
▁ch urid
▁sp eak
▁pro cess
▁pro vided
▁cont ain
▁cont ains
ాల లో
▁उ न
ally ,
ame ez
os ition
▁bec oming
▁201 1,
▁J anata
▁শ িল্প
েশ ন
▁per s
▁mar gin
▁mar ked
▁econom y.
▁form s
▁form al
ress ed
▁श ुर
▁वि स्त
ry an
▁k ilomet
▁k ameez
▁ad v
▁ad op
▁ad dition
▁ad ded
▁cl im
▁se p
▁le vel
▁centur y.
▁centur ies,
me diately
▁el ected
▁V a
▁F or
▁F ron
▁গ ্র
▁government ,
▁government s
▁pri mary
▁dec ade
▁world .
▁region s.
▁popul ous
ok a
▁Ind ones
▁tra de
reat h
▁ag o,
▁comp an
▁comp romise
▁year .
▁3 00
▁sh are
▁200 1
▁L ank
▁res ident
▁system .
▁7 .
▁পর মাণ
র্ব াচ
▁4 00
▁195 1,
ine .
ric ket
▁sup pl
▁me di
▁cons um
▁cons ists
క్ కు
▁minister s.
▁lat ter
গু ল
▁చ ే
▁he redi
▁im pro
▁199 1,
▁dis pl
ন্ত র্
ren c
▁BCE .
▁Empire .
ंग ा
▁urban isation
▁off ice
▁exp ans
▁exp ress
▁election s
▁language "
▁language ,
▁जा ती
▁নি র্বাচ
ড় ে
enc y,
▁fol low
▁rec ent
▁rec ogn
▁north west
▁ra ilway
▁tim e,
▁app ear
▁দেশ ে
দ্ধ ি
▁subcontinent ,
▁classical ,
▁খ ্রি
▁Mo hen
ex t
pl es
धिक ार
abl es,
▁Chin a,
▁parliament .
▁them .
▁set ting
▁ref er
▁constitution al
▁lead er,
▁स् था
▁cr ucial
▁sign ed
▁gra dually
▁sty le
▁जन जा
▁mathem atical
▁Himalay an
▁ধ র্ম
▁col l
anc ed
cri min
mit ted
क्त ि
▁us e
▁culture .
▁we ap
▁ass oci
▁ass ert
▁territor ies
▁trans mitted
▁कार ्य
▁बहु त
▁थ ी।
ction s
▁ent er
▁origin ally
▁cens us,
▁fig ures
▁dra in
▁remain ing
▁stat us
▁arm ies
▁dev otion
▁marri ages
▁righ t
▁support ed
▁painting ,
▁1, 000
▁स्थ ित
str uc
▁राष्ट्र ीय
▁styl es
▁mathematic s
▁రాజ ్య
যোগ ্য
▁1950 s,
চিত ্র
▁trib al
▁cur renc
▁mak es
▁fac tor
▁Ara bian
▁str ong
▁dist in
▁vill age
▁char acter
▁prot ected
▁resp on
▁consid er
▁increasing ly
▁employ ed
▁liber al
▁independ ence
▁వ్య వస్థ
▁13 th
▁Ass embly
▁অধ িক
▁প্রথ ম
▁উল্লেখ যোগ্য
gu ard
miss ion
द्य ोग
▁er a
▁ve get
▁cult ures
▁writ ten
▁sum mer
▁saf e
▁man uscri
▁lo ose
oul der
▁ret ur
▁nat al
▁Civil isation
▁(c .
▁exch ange
▁Dec can
▁Gup ta
▁Gree k
▁intro duced
▁disput es
▁scri pt
▁Constit uent
▁Maur ya
▁Indo-A ryan
▁contribution s
▁capit a
▁architect ure
▁indigen ous
▁Guj arat
touch ability
▁निर्म ाण
ার্ক িন
मंत्र ी
▁सैन ्य
▁Ash oka
▁పార ్ట
▁Ear ly
▁যদি ও
▁नेत ृत
▁దక్ష ి
Europ ean
bell ion
dar o,
jo- daro,
lades h
pass ing
▁ener gy
▁aver age
▁sover eign
▁sect or
▁somet imes
▁pred omin
▁law s
omest ic
▁eff ect
▁hab itat
▁reac hed
▁reven ues
▁সাধ ারণ
▁Bang ladesh
▁Pall av
▁stren gth
▁Demograph ics
▁anot her
▁आर्थ िक
▁chos en
▁kilomet res
▁পরমাণ ু
▁Mohen jo-daro,
9 ,
n s
ν δ
ट ी
ण ा
त र
त ्
प ्र
र ो
व ाद
ा ँ
ी ल
ू न
े ष
ो ष
খ া
ন ে
প ু
ব ্য
র ্য
ল ার
ি ,
ি ব
ি ষ্ট
ূ র্ণ
ে ষ
ে ক্ষা
ো জ
৫ ৬
ం ప
భ ుత
ర ణ
Ἰ νδ
▁ ,
▁क म
▁क ॉंग्रेस
ার া
▁स द
▁स ह
▁স ে
▁प र्व
▁( A
▁( Ἰνδ
▁में ,
▁M umb
▁ক ্রিক
▁ప రి
▁अ ल
▁अ व
ార ం
▁অ জান
র্ ধ
▁ম ার্কিন
▁N at
▁দ ্র
▁క ు
▁క ాల
াল য়
্ব ে
ক্ষ ণ
▁শ ত
▁ప్ర జ
▁ప్ర భుత
▁पर माण
▁అ య
ায় ু
▁सं ग
াত ্র
▁য া
so on
▁3 0
▁সং স
▁পর ী
▁జ నా
াহ িন
▁196 0
▁ఇ తర
न्द ्र
▁উপ ক
▁জন প্র
ించ ింది.
▁ఆ ర్
▁ফ ুট
▁হি সে
▁प्रा प्त
▁তার িখ
▁स्थ ान
▁దేశం లో
▁কর তে
▁భా ష
▁हुआ ।
▁ক্ষ েত্রে
▁మొ ద
ভূ মি
▁অর্থ নৈতিক
বস্থ া
▁Cl ass
▁হিন্দ ু
▁హింద ూ
▁পশ্চি ম
▁न्या या
▁गण राज्य
▁मुख ्य
▁এছ াড়া
క్కు వ
▁जनजा ति
▁অজান া
▁ప్రభుత ్వ
▁परमाण ु
▁জনপ্র িয়
▁ফুট বল
4 0
5 1
6 1
द ्र
न िक
फ ़
र ूप
श न
ि र
ी रे
ृ ति
् ल
् ले
ং গ্র
আ ই
ঐ তিহ
খ ্য
ণ িজ
দ ্বীপ
প ে
ভ াব
ল ব
শ ীল
স াবে
হ ি
া তি
ী ,
ద ు
మ ీ
ష ్
ీ న
ె ద్ద
▁ -
▁ ৩
▁ লা
il e
▁স ু
▁স াহ
্য প
▁ব ে
▁2 1
▁2 8
▁( B
▁( P
▁P olit
▁ప ు
▁अ रब
ান ি
ান ্ড
▁এ টি
ac t
्त ु
▁స భ
▁స ి
▁আ ন্দ
▁ন য়
్య ం
▁উ দ্
রা ষ্ট্র
▁R am
ता ब्
▁ర ెండ
▁ल िये
▁201 3
▁শ ক্ত
▁इ न
▁श ताब्
▁वि भ
▁सं सद
्व ीप
▁V .
▁গ া
াব ্দ
▁य ू
▁পর ্য
▁196 5
ాత ్ర
▁सम ाज
▁199 1
olog y
▁अन ्त
▁২ ০১
ించ ిన
▁বা ণিজ
▁হি সাবে
▁१९ ९
▁जिस में
▁क्षेत्र ीय
▁बहु म
তম াল
▁সঙ্গ ীত
▁वर्ष ों
▁ई सा
▁যু দ্ধ
▁यु द्ध
▁ঘ ট
▁উৎ স
▁స్థ ాన
▁पह ले
▁विक ास
▁వచ్చ ింది.
▁শাস ন
▁জনসং খ্যা
▁ओ र
▁প্রস্ত াব
▁प्रधान मंत्री
స్క ృ
ण् ड
▁পর্ব তমাল
▁ब्र ि
▁स्था प
▁పార్ట ీ
▁नेतृत ्व
▁ক্রিক েট
▁উপক ূল
▁সাহ িত
▁Polit ics
▁शताब् दी
. .
2 4
5 %
6 4
8 0
a ː
c over
e th
n d
o ve
r at
t r
u ,
y p
y al
ए ँ
ध ि
प र
प ाल
भ ग
म िल
ल य
स ,
स म
ह ें
ह री
ी स
ॉ ल
ौ र
ক াপ
ণ ্ড
প ্ত
ব র
ব েশ
ভ ারত
ম হ
ম ালয়
শ াস
শ িষ্ট
ি শ
ে ক
ো র
৭ ৪
ం క
గ ర
ద ా
ప ాల
వ ాత
ి ల్ల
ు కు
ు ంది.
– 19
▁ య
▁ ను
▁ ঐতিহ
on ,
al f
di a
and y
ar b
▁क ि
▁क र्
▁क िन
▁e di
▁1 6.
▁स ाल
▁स र्व
▁T o
il m
ul k
ul s
▁प ुर
▁প ার
▁S oc
▁S ome
▁ব র্ত
▁ব হু
▁ব াহিন
am b
▁2 2
▁2 1.
▁भ ाग
ad em
▁ক াল
▁ప ట్ట
్ర ె
ান ্
▁ज ब
▁ज ान
▁व ्या
▁H e
▁D is
▁N ar
▁र क्षा
▁প্র চ
▁প্র া
▁প্র যুক্ত
up t
▁দ ল
▁আ জ
▁క ొ
▁प्र भा
▁का ल
iv al
▁వ ా
▁বি ভি
▁উ দ্ধ
ন্ ড
▁ग ठ
▁R ep
▁आ द
ాల ను
av al
▁ल ा
▁ल ोग
▁Ch and
▁K .
▁K a
▁K o
▁అ తి
stit ut
▁वि देश
angu ages
স্ কার
▁V i
▁ए वं
ence .
▁O r
▁য ুক্ত
duc tion
বি ধান
▁5 00
▁5 5,
ड़ ी
▁ত থ
▁L anguages
▁ఉ ంట
▁ఉ త్
▁সং বিধান
▁राज नी
▁జ రి
▁4 2
▁4 0%
క్ క
▁থ াকে
▁ই ন্দ
olog ical
▁নি জ
▁194 7
▁১৯ ৫
▁১৯ ৮
हा ँ
▁नि भा
per ial
▁త రు
▁ద ్వ
▁जन सं
1. 1
▁Sh iv
anc es,
গ্র হ
ost -
▁थ े
बंध न
▁दो नों
▁০- ১৯-
▁২০০ ৮
म् भ
▁ড লার
▁সাম রিক
▁193 0
▁ক্ষ ম
ంద ్ర
▁कु छ
▁कु ल
వా ణా
▁দু ই
▁গণ তান্ত্রিক
▁দে খা
▁संस्क ृति
▁మార్గ ాలు
टि श
▁भूम िका
▁দশ ক
▁स्वतंत्र ता
ప్ ప
▁క్రీ డ
▁খ্রি ষ্ট
▁सद स
▁అయ ిన
▁జనా భా
▁হিসে বে
▁Class ical
ংগ্র েস
▁বাণিজ ্য
▁ब्रि टिश
▁সাহিত ্য
▁বর্ত মান
▁বিভি ন্ন
▁Rep ublic
▁55, 000
▁తరు వాత
▁जनसं ख्या
" )
( 2
- p
- t
- w
- y
- ১
- st
- di
- পূর্ব
. 6%
1 00
3 1
9 4
C ongress
G ang
I ,
P rol
Z or
a ith
a ir
a em
a res
a har
a ism,
b uc
b our
b ook
b ably
c he
c om
c il
c o-
c ale
c reasing
d en
d ro
d el
d own
e b
e as
e ast
e ad
e ous
e olog
f er
f ort
f ied
g a
g adi
h as
h a,
h av
h au
h -largest
h ouse
i e
i p
i ant
i qu
i a.
i i)
j ay
j ant
k ing
k ey
l s
l al
l es
l ing
l us
l ands
m a
m ar,
m ns
m ology
n it
n ic
n ing
o or
o ber
o vi
o etic
o astri
p id
p ot
p here
r ical
r du
r ound
r ising
r tic
s ur
s ol
s et
s ide
s pot
t t
t u
t ent
t ary
t ell
t ract
t ified
u k
y n
y ing
y th
y le
z ed
ं ब
ख ा
ग त
ग र
च ल
च ी
त ु
थ िय
द ल
प े
म न
व ल
स भा
ी त
ु निक
ू ल
े र
ो ह
ক ি
গ ণ
গ র
জ ন
ণ ী
ত ায়
থ ে
দ িকে
প তি
ম ্
ম ন্ত্র
স ল
া ংশ
ু ল
ো ক
ো দ
ো মি
্ ঞ
২ ১
৪ ৪
క ీయ
గ ్
గ ిన
ట ిక
న ాలు
బ డ
ర ో
ల ా
ల లో
ి ళ
ె లు
ౌ క
▁ x
▁ °
▁ ऋ
▁ ५
▁ ట
▁ ₹
▁ ro
▁ ide
▁ 6%
▁ enc
▁ ess
▁ Zor
▁t en
▁t al
▁t and
▁t un
▁t ub
an ing
an ism
he st
he ad
he reas
he red
he ss
he rent
in .
in es
in th
in ated
in dh
in ition
on e
on ic
on vi
on omet
er or
er ly
er ial
er ous
er ved
er continent
er t,
re t
re am
re ak
▁a ut
▁a mp
▁a ction
▁a mend
▁o wn
▁o pen
st ant
st ian
al ed
al a,
al ity,
di ent
di ment
di fied
at h
at om
at a,
at i,
at ures
at ives
at tle
▁I I,
and ar
and s,
▁c in
▁c ut
▁c ere
▁c ust
▁c uis
▁c attle
ed .
ed d
it al
it ies
ar s.
ar i,
ar row
ar sh
ar ian
ar ger
▁In ternational
▁In creasing
▁w et
▁w ay
▁w elf
▁w hereas
▁in ternational
▁in no
▁s w
▁s he
▁s uc
▁s aw
▁s iz
▁s ites
▁s ole
▁s elf
▁and ,
or y
or al
or tion
or ity
or gan
▁b an
▁b al
▁b ar
▁b rough
▁b ond
▁b ron
▁b read
▁b ott
▁b reath
▁b ulk
▁b reak
▁p ur
▁p il
▁p le
▁p ast
▁p ot
▁p ass
▁p oin
▁p aren
▁p ush
▁p ortion
es )
es e,
ic .
ic ken
▁m and
▁m ay
▁m anu
▁m ix
▁f est
▁f av
▁f ish
▁f ire
▁f lo
▁f ood
▁f ash
▁f ilm
▁f oetic
is ion
is ans
is ions
is dic
as ed
as s.
as ures
ent ial
▁l ing
▁l ate
▁l ies
▁l ab
▁l ive
▁l eng
▁l ess
▁l iving
▁l arger
▁India :
▁e vent
▁e vol
▁e mb
▁e pic
▁e ither
▁to p
▁1 1
▁T er
▁T ib
ly .
▁h un
▁h ot
▁h ous
▁h ost
▁h ouse
▁h alf
▁d h
▁d o
▁d em
▁d est
▁d oc
▁d own
▁d rew
▁d ue
▁d ense
▁d esc
▁d omestic
▁d yn
ur y
ur ta
ur isdic
ec onom
্র ুপ
▁re st
▁re ce
▁re pt
▁re lief
▁re bellion
▁n etwork
▁n ext
▁n inth
▁n onvi
▁n arrow
▁g ro
▁g ig
▁g ive
▁g overn
▁g eograph
▁g reen
▁g eolog
▁म न
▁A ch
▁A genc
▁A jant
il ar
▁ह थिय
ार म्भ
▁স দ
▁স ক্ষম
▁C up
▁C av
▁C ulture
▁C lim
▁C arn
▁C ricket
▁C amb
▁C hess
ol ent
ol ved
ol lowing
ol can
ul os
▁The y
ri ,
ri or
ri es
ri ya,
ri stian
▁प ै
▁प ड़
▁प ्ले
ra .
▁B al
▁B etween
▁B ah
▁প াত
▁প াক
▁S im
▁S ab
▁S ant
▁S ever
▁S arn
▁S ultanate
▁S ovi
am ed
▁के न्द्र
ro pp
ce ed
▁19 th
ist ing
ist ent
▁( U
▁( |
▁( inc
▁( In
▁Indian s.
et s
et y
et ah
ad we
im ing
ig er
ig ion
ge st
▁th orn
▁P .
id ing
id el
id e,
id esp
id uous
▁M ajor
▁M arat
▁ক ৃ
▁ক ংগ্রেস
▁for tified
ir m
ir t
▁r anges
▁r ati
▁r ole
▁be st
▁be gin
ment ,
ment .
ment al
ment ed
▁ప ాల
▁ప ాక
▁ప ెద్ద
్ర దాయ
tion al
▁अ र्थ
ter -g
▁wh at
▁st ud
▁st if
▁st andar
▁mo del
▁E l
▁E merg
▁E ty
res olved
▁অ ক্
▁ज िन
▁न द
▁न ाग
▁ब ने
र् त
▁ex erc
▁di d
▁di ed
▁di se
లు ,
▁G ener
▁G ond
▁an y
▁an atom
▁द र
ac ket
se l
▁N i
▁N ort
▁N ep
▁N etwork
▁N DA
▁or ally
▁on ly
▁on set
ay at
ill ed
িত )
▁প্র ায়
▁দ ি
▁ar isen
▁20 th
▁స ంగ
▁un ited
▁un touchability
▁un com
▁un resolved
▁আ য়
▁are :
▁are a.
▁క లి
ak h
oc h
▁त मिल
▁प्र कार
▁प्र ारम्भ
ant s,
▁inc ome
ot ech
du ce
▁का म
▁al liance
▁com mit
▁com fort
el igion
▁వ ంట
ary ,
end s
▁v ary
▁v alle
▁v oted
▁v olcan
▁উ চ্চ
▁से वा
▁W ildlif
▁W HO
ाज पा
▁cent re
▁de leg
▁de pend
▁U PA
▁U rdu
si a,
▁co st
ough t
our y
our ces
og am
▁R eligion
▁জ োট
▁part ially
▁ch ain
▁ch ap
▁ch ild
▁pro j
▁pro duced
▁pro bably
▁pro duce
▁cont ra
ag an
ous ly
▁at tract
▁ర వాణా
ally .
av ated
ct s
ct ober
if eration
ర్ ణ
os ing
os a,
os phere
ance ,
▁ल िया
ass inated
▁201 8
▁201 0.
▁J har
▁J aw
▁J amm
▁J une
▁Ch ol
▁Ch amp
▁Ch hau
▁Ch ristian
aj pay
▁K eral
▁per cent
▁mar ry
▁mar sh
▁econom ies
▁econom y,
▁form ,
▁form s.
▁form ally
ap p
ap s
ap ut
ress ive
▁इ ंड
▁पर ंप
▁reg ist
▁అ నే
▁pl ant
▁k h
▁k urta
▁ad vent
▁cl oth
▁cl ose
▁cl ass.
▁se x
▁se als
▁se ats
▁se diment
▁sub stant
▁large ly
▁large -s
▁rel ated
▁rel ative
▁सं यु
me work
▁el ect
▁el ites
▁el ites,
▁V is
▁V edic
▁V ajpay
▁F ollowing
lud ing
▁O ver
▁O ut
▁O ld
▁O cean
▁O ctober
▁dec reasing
▁dec iduous
▁art ic
▁art istic
▁art isans
▁region .
▁য ে
▁য ার
▁Asi ans
লি য়ন
▁ag ree
▁comp any
▁comp rising
▁year s,
▁कर ना
ff icial
▁3 4
▁3 61
▁end ing
▁sh ort
▁sh ore
▁sh ared
▁sh alw
▁sh oulder
ection s
▁includ es
▁5 5.
▁200 9
▁200 1,
▁200 8,
row ing
igh bour
1, 3
▁L at
▁L aksh
gan iz
we alth
▁over ran
▁system s
▁7 th
▁7 0%
hi bian
▁সং খ্যা
ajor ity
▁195 0.
▁196 2
▁inf orm
▁sup reme
▁sup ercontinent
▁me dic
▁me gadi
▁me aning
▁pe ace
▁lat itud
▁num eral
▁gener ated
▁that ,
▁202 2,
▁202 3.
▁202 6,
sh a
▁সম য়
▁इस ी
▁im ple
▁im mediately
▁im perial
▁199 9.
▁rul ed
▁rul ing
▁dis hes
▁dis crimin
▁tradition s
▁tradition s.
lic ,
▁sc en
▁sc hed
▁class es
▁years ;
▁British -st
▁not able
▁grow ing
▁exp anding
▁exp orter
▁election .
▁election s.
▁population ,
▁number s
▁number s,
▁Buddh a
▁Buddh ism,
ৃত ্য
ৃত িক
▁ఇ ది
▁जा ते
ef ly
কার ী
▁নি য়ে
▁south ,
▁south .
▁south west
▁fol k
▁land s
▁north ,
ically ,
mon wealth
ni qu
vi olence
▁উপ েক্ষা
▁j urisdic
▁j acket
▁ra pid
▁app oin
▁app lied
▁east .
▁18 th
▁rep eated
▁rep resent
ilit ated
▁Pakistan )
▁Pakistan ,
▁later ,
స్త ్ర
స్త ుత
ard s
▁CE .
aw at
▁there fore
▁there after
▁ab le
▁ab ove
▁power .
▁hum ans
▁Al liance
▁Com monwealth
▁rate ,
▁ext reme
▁ext ends
▁spec ies.
▁influ ences
▁count ry,
स् थ
ঞ্চ লে
▁Th ail
▁Mo di
▁वर् ग
ంగ ్రె
▁6 th
▁occ as
▁occ urred
▁war rior
esp ite
▁mat erial
▁lif e,
▁liter ary
▁liter ature
▁histor ical
▁histor y,
▁histor ically
▁histor ians
▁state ,
▁period .
▁river s,
ুর ু
▁हि माल
▁Pl ain
▁US$ 2,
▁US$ 100
▁বিশ্ব কাপ
▁బ హ
▁St ill
▁St ates,
-d es
-d ay
ron ic
▁set tle
▁ref l
▁non- Congress
▁non- co-
▁non- violence
▁East ern
ultan eous
▁197 1,
▁Del hi,
ack buc
▁उत ्प
au th
▁था ,
▁other s
▁pre vent
▁main ly
▁main tain
▁far mer
▁emp has
▁emp eror
▁gra dient
▁def eated
▁def inition
▁Indo- European
▁Indo- Gang
▁forest ,
▁forest s,
▁music .
▁Himalay as,
▁col leg
▁col onial
▁अप ्र
▁अप ने
▁अप नी
ిత ్ర
▁ఎ క్కువ
▁Sh astri
▁প্রধান মন্ত্র
▁বৃ দ্ধি
▁Plate .
cri ption
put s,
vid ence
▁२ ००
▁en abl
▁us ually
▁tech niqu
▁acc om
▁acc oun
▁acc ess
▁acc ording
▁Isl am,
▁Isl amic
▁Isl ands,
▁cit ies,
▁cit iz
▁we b
▁high ly
▁ass assinated
▁coast al
▁coast line
▁contrib ut
▁contrib uted
▁Jain ism
▁Jain ism,
▁plain s,
▁territor ial
▁territor ies.
▁country 's
▁court s,
▁court s.
▁trans form
▁Sikh s,
ां ति
▁অন্য তম
▁17 th
▁রাষ্ট্র ।
ven e
▁Europ e.
▁సా ధ
-s p
▁origin al
▁indust rial
▁bi odiversity
▁bi otech
▁feat ure
▁last ed
▁remain ed
▁ne ighbour
▁stat u
▁movement .
▁export s
▁export ed
▁export s.
▁diff used
▁diversity .
▁animal s
▁arm s
▁arch aic
▁dev ast
▁marri ed
▁support .
▁second -largest
▁occup ation,
▁literac y,
▁painting s
▁Y aksh
▁(সাহায্য) ;
▁Se a
▁Se a.
4. 4
cent ury
ped .
▁घ ोष
ati .
▁car ved
▁inter vention
▁pres ent
▁pres ence
▁pres ident,
▁prom in
▁national ist
▁Bi har
▁Bi odiversity
▁commer ce
▁market s.
▁sever al
▁sever ely
▁decl ared
▁styl es,
▁mathematic ians
ছিল ।
▁কেন্দ্র ীয়
rac y.
▁बड़ ा
ాబ ్
▁Raj iv
▁Raj puts,
-g rowing
-m ajority
wan a,
▁tem per
▁tem ples
▁tex ts
▁tex til
▁aff air
▁aff irm
▁ob s
▁ob struc
ather ers,
▁civil ian
▁win ds
▁bl ackbuc
▁men ,
▁mak e
▁fl our
▁five -y
▁eth ical
▁every day
▁10 th
▁domin ion
▁domin ance
▁gen der
▁gar lic,
▁2. 8
▁GDP ,
▁ann ually
▁ann ual
▁vari ous
▁spread ing
▁administr ation
▁subsequent ly
▁comple x
▁resp ective
▁Union .
▁polic y
▁polic ies
▁caus e
▁term .
▁surv ives
▁coalition ,
▁legisl ature
▁independ ent
▁Brahm aput
ोल न
▁रह े
▁ము ఖ్య
▁Des ert,
-b ody
ంది న
▁ఏ ర్
▁tur ned
erc ulos
dis ed
▁che etah
▁creat ing
▁creat ivity
▁invol ved
▁invol ving
▁so on
orn e
▁pract ic
▁mon soon
▁mult i-
▁fam ily
▁flow ering
▁lay er
▁democ ratic
▁democ racy.
▁ste amed
▁exc avated
▁Ghat s,
▁కా ంగ్రె
▁partition .
▁sport s
▁लग भग
▁play ed
▁Fore ign
▁languag es,
▁languag es.
▁Hindust an
▁Hindust ani
▁again st
▁meat ,
▁poll ution
▁serv ice
▁south- west
▁secular ,
▁extens ively
▁crust ,
▁Himalayas .
▁ఎన్న ో
▁Plateau ,
▁school s
▁renew able
ज़ ी
▁সংস্ক ৃতি
la iming
ম্ব র
▁हाल ाँ
▁(19 9
▁Democ ratic
▁স্বাধীন তা
▁पार्ट ी
-k nit
vas ive
ుక ో
anag ara
▁cal end
▁cle ared
▁init i
▁inequ ality,
▁sim ilar
▁sav oury
▁bu ild
▁bor ders
▁bri efly
▁pat ron
▁pover ty
▁mal es.
▁mamm als,
▁migr ation
▁fra mework
▁fem ales
▁lim ited
▁lik e
▁town s
▁Tem ple
▁Treat y,
▁hy mns
▁hig hest
▁hub s
▁nomin al
▁gain ed
▁god s
▁good s
▁Ak b
rig onomet
▁isol ation
ett led
▁threat ened
▁Mal ay
▁Myan mar,
▁Econom y
▁extin ct
▁example ,
▁div orce
▁Geograph y
▁Non- Prol
▁Nicob ar
▁organ isation
▁unit ary
▁కే ంద్ర
▁vi olence
▁victor ies
▁partic ular
▁churid ars.
▁speak ers
▁margin s
▁adv anced
▁adop ted
▁addition al
▁clim atic
▁sep arat
▁Fron t
▁Indones ia.
▁compan ies
▁Lank an
▁resident s
▁7. 5%
▁suppl anted
▁medi eval
▁consum ption
▁heredi tary
▁displ ay
▁northwest .
▁railway s,
धिकार िक
▁weap ons
▁associ ated
▁strong ly
▁distin ct
▁character istic
▁respon se
▁liberal isation
▁veget arian
▁safe guard
▁manuscri pt
▁loose -knit
▁retur ned
▁architecture ,
▁దక్షి ణ
▁(A rtic
▁Mumb ai,
▁সংস দ
▁পরী ক্ষা
▁न्याया लय
▁প্রস্তাব িত)
yp ically
▁edi cts
▁He alth
▁প্রচ ল
▁प्रभा व
▁गठ बंधन
▁Ka ver
▁Ko si
stitut es
▁Vi jay
▁Or ganiz
▁Shiv a
(2 )
aem en
ahar lal
oastri anism
▁ess ential
▁Zor oastrianism
▁tand oor
▁tub erculos
▁amp hibian
▁amend ments
▁cere al
▁cust om
▁welf are
▁inno v
▁brough t
▁bond s
▁bron z
▁bott om
▁breath ing
▁poin ts
▁paren ts
▁manu f
▁flo od
▁foetic ide,
▁leng th
▁event ually
▁Tib et
▁hun ter-g
▁hot spot
▁hous es
econom ic
▁nonvi olent
▁gro om
▁gig awat
▁green house
▁Ach aemen
▁हथिय ार
▁Cup s,
▁Clim ate
▁Carn atic
▁प्ले ट
▁Sim ultaneous
▁Sab ha,
▁Sever al
▁Sovi et
▁(inc luding
adwe ep
idesp read
▁begin nings
▁standar dised
▁Emerg ency,
▁Ety mology
▁dise as
▁Gener al
▁Gond wana,
▁Nort heast
▁Nep al
▁uncom mon
▁commit te
▁comfort able
▁deleg ates
▁depend ent
▁Jhar kh
▁Jaw aharlal
▁Jamm u
▁Christian ity,
▁Keral a
▁percent age
▁marsh y
▁परंप रा
▁substant ially
▁large-s cale
▁संयु क्त
▁Vajpay e
▁Laksh adweep
▁inform ation
▁megadi verse
▁sched uled
▁British-st yle
▁jurisdic tion
▁repeated ly
▁extreme ly
▁हिमाल य
▁defeated .
▁Indo-Gang etic
▁colleg es
▁transform ed
▁Yaksh agan
▁five-y ear
▁हालाँ कि
▁Non-Prol iferation
▁Vijay anagara
▁Organiz ation
▁tuberculos is
▁hunter-g atherers,
▁Simultaneous ly,
- অ
- ২
- ৮
t ry
ं क
ए ं
ज न
ट न
ण ी
त ्त
द ा
प ु
म ,
ल ों
व री
श ील
स ्व
स ्ट
ा ,
ा ंध
ा प्त
ु ल
ू स
ृ द्ध
े क
ै ल
ै ली
ो त
ो र
উ ড
ক ল
গ োল
জ ি
ণ ত
ত ৃত
ত ন্ত্র
থ িব
ধ ী
ন ও
ন িক
ন ীতি
ব িক
ব াদ
ব ্দ
ভ ্য
ষ ে
স ভ
ী ব
ে ই
ে লা
ো ষ
ো র্
১ .
৪ ৫
৯ ৮
ం .
ం :
క ాల
క ్రమ
జ ్య
త ్ర
ధ ి
ప తి
మ ే
స ు
హ ద్ద
ా ,
ా వ
ి మ
్ మ
▁ '
▁ ऑ
▁ —
▁क ह
▁स भ
▁स ्तर
য় ।
▁म ंत्र
ार ्
▁C oun
▁प हा
▁প রে
▁ব ন
▁ব ু
▁ব লে
▁ব ্যা
▁ক াপ
▁ক র্ত
्य ता
▁ప ర
▁ప ా
▁अ फ
ార ి
▁ज िन्
▁ब ार
▁व े
▁व ाल
▁व ्यवस्था
▁ম োট
িত ্র
्त ्र
▁స ిం
▁స రి
ान ,
▁আ গ
▁আ র
▁আ ঞ্চল
▁క ార
▁की ।
▁त ीस
▁వ ె
▁వ ే
▁మ హ
ন্ ট
টি র
টি শ
▁ग ए
▁ग ति
▁ग ंगा
▁ग ांध
▁জ লব
▁आ क
▁आ ग
▁आ धिकारिक
▁उ स
▁उ न्
▁শ হ
▁শ ব্দ
▁ప్ర తి
▁ప్ర స్తుత
▁అ త్య
ায় ী
▁वि ज
िय न
বি দ
▁ఉ ప
▁च ार
▁च ीन
▁সং র
▁జ న
ाद ्वीप
▁చ ిన్న
▁सम ्प
▁ই ং
▁ই তিহ
াপ ্ত
ండ ు
▁ఇ ండి
▁हो ती
से ना
▁नि र
▁চ ল
স্ত ান
▁বা ং
▁আই ন
ల్ ప
ంగ ్ల
▁198 0
▁হি মালয়
▁রাজ নৈতিক
▁বিশ্ব ে
▁ध ीरे
▁గ ల
▁సం స్కృ
▁१९ ७
▁१९ ८
▁जन ता
▁পরি ণত
▁ধ ্রুপ
ork :
▁जिस के
▁অন্য দিকে
▁সরকার ি
कर ण
iet y
ला वा
▁Y ork:
্রি টিশ
▁దేశ ాల
▁ప్రా చ
▁হয়েছে ।
▁రాజ కీయ
▁ড ি
▁ল ক্ষ
▁ভাষ া
▁बड़ ी
▁बड़ े
▁সর্ব াধিক
▁ड ॉल
▁Pres s.
▁যু গ
▁यु ग
డి ప
▁পা ঁচ
▁উত্তর -পূর্ব
বর্ত ী
▁মান ুষ
▁संस्क ृत
▁সম্প র্ক
জাত িক
▁अंग्रे जी
▁বিচ ার
▁आध ुनिक
▁ऊ ँच
ন্ধ ু
शास ित
ক্র ান্ত
ాల్ లో
▁శా స్త్ర
ृष ्ट
సి యా
▁পৃ থিব
▁বিস্ত ার
▁शुर ू
▁विस्त ृत
গুল িতে
▁নির্বাচ িত
▁অধিক াংশ
▁सह योग
▁पर्व त
▁अल ग
▁కాల ంలో
▁ఆర్ ధిక
▁এছাড়া ও
▁సి ని
▁শক্ত ি
▁बहुम त
▁উৎস ব
पाल िका
মহ াদেশ
▁कर् ज
▁किन ्तु
▁Soc iety
▁व्या प
▁প্রযুক্ত ি
▁विदेश ी
▁ఉత్ తర
▁০-১৯- ৫৬
▁সদ স
▁अर्थ व
▁సంగ ీ
▁Wildlif e
▁ఏర్ ప
▁సరి హద్ద
▁আঞ্চল িক
▁అత్య ధిక
▁ইতিহ াস
▁ఇండి యా
▁डॉल र
▁পৃথিব ীর
" ,
- ৩
- ৬
. ৮
0 4%
2 00
6 2
c ise
i ple
m un
ं ह
इ न
ज रा
ड ी
त ः
त मान
प ीय
फ ल
म ह
र ु
व ी
व ीं
श त
स ित
ह ि
ह ास
ा ई
ा ह
ो ढ़
ो सी
ो च्च
् स
এ র
ক ৃত
খ ্যার
ট ো
ঢ ়
ত ু
ত ো
ধ র
ন =
ব ই
ব হ
ব া
ভ ক্ত
ম ,
স ফ
ি ন্ন
ি স্তান
ে ম
ৈ ধ
ৈ চিত্র
্ ট
১ ৭
৭ %
৭ ১
ం ధ
క ొ
క ాలు
గ ం
గ ి
ట ్ల
ఢ ిల్ల
ణ ి
త ా
త ిక
త ంత్ర
ద ం
ద ్ర
ద ార
య ో
ర ం
ల కు
ల ను
ల ్వ
స ింది.
ీ ;
ు .
ె ల
ె ంగ
▁ ছ
▁ ৮
▁ ছিল
▁ टे
an ,
ar aj
▁1 00
▁स ी
▁स ु
▁स ू
্র াজ
▁म ो
▁म हा
▁A b
▁স ার
▁C ol
্য ,
্য ।
্য ান্ড
▁B r
▁প াল
▁প ার্
ation s,
ation s.
▁ব র্ষ
▁ব ায়ু
▁ব ্রিটিশ
▁के वल
▁2 ,
▁2 9
▁भ ाजपा
▁( क
▁ক ারণ
▁ప త
▁ప ూ
▁ప ో
▁अ ग
▁अ ब
▁अ स
em s
ান ে
ান ীয়
▁অ ংশ
▁অ ভি
▁অ ক্ষর
▁অ ন্তর্
▁ज ै
▁न िय
▁ब ै
▁ब नी
র্ শ
▁H .
▁H ar
▁द िल
▁द ृष्ट
▁হ লে
या स
▁ম ে
▁ম ৌ
▁ম াল
▁প্র জাত
▁দ া
▁দ ৈ
▁స మా
▁స ౌక
ub l
▁আ দ
▁আ ধ
▁আ ন
▁আ ন্তর্
াল ি
▁त ो
▁प्र यास
▁ন িক
▁ন ৃত্য
▁বি বে
▁বি বাহ
▁বি ভক্ত
▁మ న
▁మ ూడ
ch ived
▁জ ি
▁आ या
▁आ न्द
▁उ द्योग
▁ర హ
▁ल े
▁201 2
▁201 4
াম িল
▁ప్ర ము
▁श िक
▁श ्री
▁భారత ్
▁वि वाद
রে খ
▁F act
न् न
▁য ায়।
▁कर ता
▁3 2
▁200 7
▁ত ৃত
▁ত েল
ति हास
▁195 1
▁এক াধিক
▁202 2
িল োমি
▁সম াজ
▁इस की
▁सम र्थ
▁सम ाप्त
▁199 8
▁করে ছে।
ঙ্ ক
ৃত িতে
▁हो ते
▁অন েক
▁উপ র
▁উপ দ্বীপ
▁উপ মহাদেশ
▁জন ্য
▁চ ন্দ্র
▁বিশ েষ
▁র ূ
▁ఆ ధ
ంత ో
▁খ েলা
▁वर् ण
▁वर् तमान
এসবি ন=
▁న డిప
▁బ ్రి
▁బ ెంగ
▁197 1
▁197 4
▁197 7
▁వి వి
स्त ्र
▁१९ ६
वा यु
াগ র
▁অব ৈধ
০- এর
▁२ ०
▁हिन्द ू
ां ड
▁রাষ্ট্র পতি
▁సా మ
্থ ান
▁| আই
▁স্ব া
▁अधिक ार
▁মহ াক
▁প্রতি ষ্ঠ
াই ল
▁বৈ চিত্র
▁বৈ শিষ্ট
▁নাম ে
▁কর ুন
▁২০০ ৭
মাণ বিক
▁কেন্দ্র শাস
म् ब
▁ল োক
rac y
▁ভাষ ায়
▁কো টি
ৃতি }}:
ాబ ా
▁সাম ্রাজ
▁সা ং
▁সা ক্ষর
▁दिया ।
▁নে তৃত
ద్ధ ి
▁రాష్ట్ర పతి
▁শতাংশ ।
ष् ठ
ष् ण
দেশ ের
▁{{ বই
▁Ar chived
्री का
▁बन ाने
▁উৎ প
চ্চ িত্র
▁প্যারামিটার ে
▁अम री
▁মান :
▁অনু স
বাস ী
డ్ డ
▁সি ন্ধু
▁अंग्रे ज़ी
-এ র
िन् न
▁जल ोढ़
▁जल वायु
▁এশিয় ার
▁Democ racy
▁प्रति शत
▁গঠ ন
▁অবস্থ িত
▁ప్రాంత ాలు
▁স্থাপ ত্য
पू र्ण
▁পুর ুষ
▁अभ ी
द्योग िक
रो पीय
ব্য বস্থা
▁শত াব্দ
▁তারিখ ে
▁దేశంలో ని
▁మొద ల
▁আন্দ োল
▁రెండ ు
▁विभ िन्न
▁यू रोपीय
▁পর্য ন্ত
▁পর্বতমাল া
▁स्थाप ना
▁सर्व ोच्च
▁পার মাণবিক
▁বাহিন ী
▁పట్ట ణ
▁जब कि
▁जान ा
▁উদ্ধ ৃতি}}:
▁आद ि
▁ला ख
▁যুক্ত রাষ্ট্র
▁राजनी तिक
▁থাকে ।
▁ইন্দ ো
ప్ప టిక
▁বর্তমান ে
▁ऋ तु
▁पड़ ोसी
▁পাক িস্তান
▁কৃ ষ
▁బహ ు
▁उत्प ाद
▁अप्र ैल
োর্ ড
▁अफ ्रीका
▁సిం ధ
▁गांध ी
▁সংর ক্ষণ
▁ইং রে
▁চল চ্চিত্র
▁व्याप ार
▁अर्थव ्यवस्था
▁প্রজাত ন্ত্র
▁సౌక ర్య
▁আন্তর্ জাতিক
▁ప్రము ఖ
▁Fact book
▁তৃত ীয়
িলোমি টার
▁समर्थ न
▁వివి ధ
▁|আই এসবিন=
▁কেন্দ্রশাস িত
▁শতাব্দ ীর
, 51
- প
- ব
- স
0 1,
1 4%
2 1
2 2
3 0
5 00
6 3
6 7
9 6
B C
F )
M uslim
[ ˈ
b ʱ
c adem
h ab
i er
l in
m en
m rit
n er
n a,
o h
r ata
s erv
t ]
u di
y )
ə t]
ɾ ət]
ί α
ς ),
ό ς),
ं जा
च ना
ण ,
त म
त ्या
थ ी
द ार
द ारी
ध ार
न त
न ै
प ि
भ ाषा
म ी
य न
र -
ल ्त
ल िम
व न
व ास
व र्ष
स ि
स ून
ा ट
ि ख
ि रा
ी र
ु आ
ु ष
े ट
े ल
ो व
ो टे
ौ ह
ौ द्योगिक
् ञ
् ‍
् ली
० ,
४ .
५ ०
ক টি
খ ন
খ ণ্ড
গ ঠ
ঘ ল
ঘ াট
চ ্
চ াল
জ াতি
থ াক
দ ান
দ ায়
ন ার
ন িয়
ন শীল
প াত
প ূর্ণ
ম য়
ম োদ
র ত
র ি
শ ্র
স ,
া ভ
ি ষ্ঠ
ু গ
ূ চ
ৃ ক
ে পি
ো য়
ো ষ্ঠ
ৌ গোল
্ লি
২ ৩
৩ ৫
৬ %
৭ ২
৯ ৭
గ ే
గ లు
చ ే
ట ీ
త ాబ్
థ ిక
ద ర
భ ి
మ ్య
మ ంత
మ ిళ
ల తో
ళ ్ల
వ డ
వ ల
వ ు
వ ే
వ త్
వ చ్చ
ష ు
స ్య
ా న్ని
ీ ప
ీ ర్ణ
ూ ప
▁ %
▁ Ś
▁ ऐ
▁ ढ
▁ ६
▁ ০
▁ ৭
▁ ఐ
▁ ఖ
▁ তি
▁ লি
▁ గా
▁ লেখ
▁ [ˈ
in d
on y
er 's
en n
al ,
▁c row
it ,
ar an
es h
▁क िस
▁क िये
▁क ृष
is her
ing er
as a
▁India ।
▁1 4
ার েশন
▁स ल्त
ur t
্র মে
্র তিক
্র দায়
য় ের
▁म ौ
▁म ूल
▁A cadem
▁A mrit
il a
▁ह िस
▁C al
▁प हु
▁प ंजा
্য ে
▁B BC
▁প ো
▁S ince
▁ব স
▁2 nd
▁( W
▁( ম
▁( edi
ad a
▁P ress
▁P ublic
▁M it
▁M ar
▁M ach
▁ক ম
▁ক িলোমিটার
्य ाद
▁ప ద్ధ
▁ప ండు
▁अ लावा
em a,
em por
ter s
▁অ র্
▁ज ून
▁ज हाँ
▁न व
▁न ी
▁ब ौ
▁ब ंग
▁व ा
▁व ै
▁व ीं
িক ্ষ
▁D ic
▁G old
▁হ ন।
▁হ কি
▁ম তো
ay back
▁প্র ত্য
▁প্র ভাব
▁দ িক
▁స మ
▁స ు
▁స ార
▁స ర్వ
▁আ স
াল ত
াল ু
li ,
▁त ट
▁प्र त्य
▁प्र शास
▁प्र चल
▁प्र ौद्योगिक
▁ন দী
el ,
▁వ ల
▁వ ర్
▁వ ాత
▁বি ষ
▁বি লিয়ন
▁W ayback
▁భ ూ
ाज िक
ch ing
िया ं
ক্ষ ে
ক্ষ েত্র
▁ग ई
▁ग ई।
▁R om
▁জ ৈ
▁आ ज
ాల కు
ాల తో
▁उ भ
▁उ च्च
▁ర ో
స్ వా
▁201 9
াম া
▁J oh
▁শ ্র
▁শ ুরু
▁इ तिहास
▁श ांति
▁पर ्य
▁అ ను
▁అ భి
▁को ई
▁ए व
▁F rom
▁গ ড়ে
াব া
াব াদ
न् ध
লি উড
గా ,
▁3 0,000
বি ভাগ
▁রা ম
▁200 4
▁200 7,
▁200 6,
ने क
ने मा
▁ত ামিল
row n
▁" In
▁L ong
▁L ib
stitution al
▁7 000
▁7 4.
▁7 2.
▁7 ,51
क्ष र
▁च ल
▁च ला
▁সং স্থ
▁সং গ্রহ
▁राज धान
▁राज नै
ास ्त
▁జ ాబ
▁4 th
ral ian
ాయ ి
▁196 7
्ट ा
ాత ంత్ర
▁202 1
▁చ రి
▁చ ైన
▁199 0
▁ই ন্ড
ust ralian
ধ্য মে
ধ্য ুষ
▁१ ८
ను క
▁An and
▁Con serv
▁अन ्तर
▁भी ल
▁নি র
▁নি য়
্প ্রতিক
ించ ే
িয় া
्या त
▁नि र्
▁চ ার
▁চ তু
দ্ধ ির
স্ত ্র
▁ফ ে
स् लिम
▁খ াত
▁খ েল
▁త న
▁త మిళ
▁किया ,
ंत्र िक
▁6 00
▁198 4
▁న ే
▁న గర
লা ,
▁ద ా
ृत िक
ము ద్ర
▁9 ,000
ার্ সি
▁197 5,
▁వి శ
ood ,
▁సం ఖ్య
▁उत ्त
▁जन वरी
▁পরি ষে
▁পরি চাল
▁अप ना
▁सरकार ें
ిత ా
▁శ తాబ్
▁जिस का
anu j
▁साम ाजिक
–2 00
▁भाषा एँ
▁हिन्द ु
3. 8
সে ম্বর
▁17 .
3, 42
▁फ ्र
ুন িক
▁Act ,
▁Se e
▁বৈ দেশ
▁కూడ ిన
త్ తం
▁Tamil ,
▁ব্য বস্থ
▁ব্য বস্থা
▁पूर्व ी
যোগ িত
▁কো ম্প
▁কো নও
▁অঞ্চল ের
▁రై ల్వ
▁हुई ।
8. 7
গত ।
▁ট ্র
▁ని ర్వ
▁সাম ্প্রতিক
▁మొ త్తం
ध्य म
ভূ ত
াট ক
▁सि ंह
▁सि नेमा
▁मान ा
▁मान सून
▁పే ర్
স্ক ৃতিক
ুপ ্ত
▁बढ़ कर
▁দ্ব ীপ
▁उप मह
▁భారతదేశ ానికి
▁छ ोड़
▁ক্র য়
▁দু টি
ুত ্ব
▁मिल ियन
▁संघ र्ष
▁১৯৯ ১
▁ఒక టి
▁अम ेर
▁অনু মোদ
▁जी त
▁विक सित
▁స్వ ాతంత్ర
▁বিচ ারে
▁आध ार
▁জনসং খ্যার
edi a
▁కో ర్
ন্ধ ন
▁গঠ িত
▁অবস্থ িত।
▁देख ा
▁भूम ि
▁అధికార ిక
রো প
ట్ లు
rid ge
▁पु र्त
▁बा हरी
▁মা ধ্যমে
▁মু ঘল
ক্ষম তা
▁गु प्त
▁ప్రపంచ ంలో
▁मा ध्यम
▁পুর স্কার
▁अभ िया
▁शुर ुआ
▁विस्त ार
▁చే య
రణ ం
▁(Ἰνδ ία
▁(Ἰνδ ός),
▁పరి శ
▁দ্র ুত
▁ప్రజ ా
▁संग ीत
▁మొద టి
পে ক্ষ
▁Ram anuj
▁গা ঢ়
aː ɾət]
cover y
▁ను ండి
▁ঐতিহ ্য
▁16. 6%
▁Dis covery
▁लोग ों
▁Chand ra
▁তথ ্য
▁జరి గిన
▁১৯৫ ০
▁निभा ई
▁थे ।
▁ক্ষম তায়
ंब े
पे क्ष
সল মান
্ঞ ান
▁অক্ সফ
▁नद ियाँ
▁দি য়ে
▁इंड िया
▁అనే క
▁ఎక్కువ గా
▁প্রধানমন্ত্র ী
▁घोष णा
▁కాంగ్రె సు
▁প্রচল িত
ావ రణం
▁कह ते
▁বু দ্ধ
▁কর্ত ৃক
▁వె బ
▁জলব ায়ু
▁उस के
▁ప్రస్తుత ం
▁ধ্রুপ দি
▁ప్రాచ ీన
▁ডি সেম্বর
దార ులు,
▁পার্ টি
▁অন্তর্ গত।
▁दिल ्ली
▁दृष्ट ि
ubl isher
▁আদ ালত
▁आन्द ोलन
▁నడిప ించ
▁२० १
▁বৈশিষ্ট ্য
▁সাক্ষর তার
▁নেতৃত ্বে
▁পুরুষ দের
▁ইংরে জি
bʱ aːɾət]
ৌগোল িক
▁[ˈ bʱaːɾət]
▁सल्त नत
▁पहु ँच
▁पंजा ब
▁(edi tor
्याद ा
empor ary
▁వాత ావరణం
▁"In dia
▁Lib r
▁74. 04%
▁7,51 7
▁সংগ্রহ ের
▁राजधान ी
▁राजनै तिक
▁జాబ ితా
▁చరి త్ర
ধ্যুষ িত
▁বৈদেশ িক
▁రైల్వ ే
▁నిర్వ హ
▁उपमह ाद्वीप
▁अमेर िका
▁पुर्त ग
▁অক্সফ োর্ড
" b
% )
' )
' .
' E
' í
, "
, ৬
, 42
- B
- D
- T
- h
- n
- प
- আ
- ০
- ৪
- ৭
- re
- or
- ri
- ter
- der
- li
- el
- we
- sh
- urban
- ex
- pl
- own
- ins
- work
- pro
- inc
- cast
- reg
- operation
- ভারত
- east
- sel
- century
. ,
. 1
. 3
. ३
. ১
. ২
. ৪
. 0%
. 2%
. ৬%
0 6.
0 –19
0 94
1 1
1 st
1 ).
1 –200
2 3
2 5
2 ),
2 %.
2 64
2 4.4
3 2
3 –
3 0.
3 51
4 8
4 ′
4 6%
4 ).
4 –201
5 ;
5 °
5 4%
6 5
6 4%
6 0%
6 01,
6 63
7 5
7 °
7 00
7 31
8 °
8 5.
8 1%
9 1,
9 1%
= -এ
A l
A ra
A ph
B h
C N
G DP
G reen
I sl
K ad
M in
M ap
N A
N DA
P P
P ol
P ub
P akistan
S t
U CN
[ ɦ
a o
a z
a ṅ
a —
a ul
a us
a id
a ud
a iv
a ff
a ugh
a o,
a dic
a ute
b a
b y
b on
b and
b ic
b ec
b ro
b ate
b li
b ade
b led
b ility
b ined
b hā
b ra.
b ally.
c o
c re
c ur
c ol
c ul
c ation
c ut
c es,
c uring
c ulture
c olog
c lo
c ked
c ook
c ute
c ines
c laiming
d a
d as
d ent
d ra
d us
d e,
d ates
d led
d ministr
d den
d esh
e ;
e —
e en
e ed
e ing
e ur
e um
e ud
e av
e es.
e ep
e ace
e king
e es)
f .
f l
f en
f ol
f ul
f ast
f ts
f all
f ted
f ess
f ices
g ar
g ation
g id
g ment
g ence
g ener
g ust
g raph
g ative
g redi
g reg
g ic,
g round
g ala,
g ressive
h a
h l
h â
h ic
h ou
h il
h ol
h am
h ich
h as,
h ood
h yth
h ary,
h aps
h gala,
i .
i o
i and
i ec
i ver
i ra
i ation
i a,
i i,
i ber
i pp
i hi
i vers
i o-
i ens
i ef
i -d
i ers
i ra,
i ature
i -g
i ble
i ence.
i ii)
i dified
i ri,
j i
j am
j our
j av
j oin
j ured
k ;
k e
k ent
k s,
k ut
k im
k ir
k ies
k har
k ara
k ani
k ata,
k sha
l on
l er
l it
l ar
l or
l as
l ig
l id
l ac
l ated
l es,
l igh
l iter
l ess
l ped
l ating
l aving
l ung
l aced
l aps
l ila
m m
m o
m s
m ā
m an
m ic
m ast
m op
m od
m inister
m ond
m ost
m etic
m ense
m mediately
m ada
n ]
n at
n am
n ut
n op
n ot
n ational
n o-
n as,
n am,
n ions,
n ai,
n ers.
n cre
n ees.
o o
o v
o x
o at
o ic
o ist
o et
o ast
o s.
o i,
o oth
o dic
o als
o fficial
p =
p r
p an
p re
p ar
p ure
p li
p ect
p ire
p ower
p ren
p ared
p ost
p osed
p anding
p resent
p osition
p ressed
p ublisher
r in
r ion
r ing
r il
r uc
r up
r ish
r ing,
r oup
r anged
r upt
r ance,
r gar
s "
s ar
s ive
s ence
s uch
s hi
s ite
s ions
s ar,
s ue
s ched
s —w
s ine,
s che
s cription
s men
s kir
t .
t i
t o
t an
t ra
t ation
t ro
t ment
t ial
t ive
t a,
t i,
t ection
t as,
t ies.
t ances
t ains
t i-
t ropical
t re.
t ivity
t ling
t ally.
t -h
u ;
u x
u th
u ment
u ff
u istic
u gu
u aries
u kh
u idel
u gust
v is
v ir
v ate
v ial
v ant
v all
v ine
v es.
v als
v ara
v ail
v anag
v ati.
w ing
w ent
w estern
w ide
w ice
w str
w anted
w here
w eri
w ala,
w ati.
x ic
x isting
y ā
y ī
y st
y ed
y der
y ond
y am,
y pical
y jam
y lon
z adi
Ö n
á 'í
ā ṇ
ā dh
ā ham
ā mā
ū tr
ɪ nd
ʊ ˈ
ं ट
ं त
ं का
ई ,
क ्ट
च े
च ्
च ार
ज ट
ट क
ट ल
ण ाली
ब ी
ब ो
भ ु
य क
य े
र ह
र ि
ल ंका
व ,
व े
श ्म
श ाली
श ेष
स त
स ू
ह ों
ा त
ा ओं
ि प
ि श
ी क्ष
ी करण
ु ट
ु ष्
ू त
े ज
े क्षा
ॉ की
ौ सेना
४ ०
४ ७
এ ল
ক ু
ট ,
ট াল
ঠ ে
ঠ ে।
ত ্ব
ত ্থান
দ ্য
দ র্শ
ধ া
ন ক
ন াত
প ুর
ফ ্রিক
ফ ি,
ব স
ভ ে
ভ ৃতি
ভ কৃত
ম ব
ম ু
ম িক
ম াত্র
র ,
ল ী
ল াদেশ
শ ৈ
শ াক
ষ ণ
ী ক
ী ণ
ু য়
ু মান
ে ,
ে য়ে
ো হ
১ ০
২ ৮
২ ৯
৩ ৩
৪ ১
৪ ৭
৫ ২১
৬ ২
৬ ৬
৯ ৩
క ి
క ారం
ఖ ండ
గ ో
గ ంగా
ట ం
డ ే
ణ ంగా
త ులు
ద న
ద ్య
ప ూ
ప ్రదాయ
ఫ ్
మ న
మ ె
మ ై
మ ్మ
ర త
ర ాలు
ల ే
వ ృ
వ ర్
వ ి.
శ ్చ
స ై
స త్వ
హ ార
ా ఖ
ా ప
ా మ
ి ప
ి స్థ
ూ చ
ె హ
ె ట్
ై గా
ో ర
ṇ a,
ṣ ṭ
– 400
– 60%
– Ara
– Kad
– Pakistan
— am
— ex
— passing
— cover
— sol
— bec
— cook
— dates
— not
— such
— to
▁ )
▁ झ
▁ ३
▁ ८
▁ ఘ
▁ ఫ
▁ ‘
▁ ic
▁ il
▁ ver
▁ id
▁ ub
▁ ),
▁ ens
▁ eng
▁ ident
▁ ఢిల్ల
▁ Ön
▁t re
▁t ri
▁t uc
▁t ies
▁t ang
▁t ect
▁t reat
▁t rough
▁t abl
▁t ied
▁t ight
▁t eak
▁t ons
▁t rial
▁t iger
▁t rigonomet
▁t ypically
▁t augh
▁t wice
▁t ypical
an .
an ;
an di
an ar
an am
an s,
an ad
an im
an ct
an istan
an ism,
an ked
an jav
an mo
an weri
he s.
he ther
he s;
in al
in et
in s.
in ate
in ces
in es.
in ite
in ade
in ations
in ed,
in ks
in aries
in -pro
in fall
in i.
▁the or
▁the ore
on s.
on our
on isation
on e.
on ists
on ia
on gest
on mental
on kani
on tally.
er .
er o
er ve
er ations
er ation,
er ving
er ia
er gy
er ences
re st
re ed
re ly
re s,
re et
re ate
re hen
re land
re mental
re pren
▁a di
▁a ro
▁a ch
▁a ct
▁a ven
▁a str
▁a mb
▁a head
▁a cute
▁a uth
▁o ro
▁o per
▁o ven
▁o cean
st er
st ing
st ment
st ed,
st aː
st ead
st ream
en di
en ing
en s.
en istic
en ing.
al o
al ite
al ised
al ue
al am,
al ms
di ,
di al
di ers,
di vas
di sha
di ves.
at en
at is
at ur
at ist
at ab
at ak
at ant
at hem
at ers
at hes
at han
at pur
at riya,
▁I ,
▁I .
▁I T
▁I mp
▁I ran
▁I UCN
▁I dent
▁I mmediately
▁I reland
and ed
and a,
and mast
▁c as
▁c ra
▁c ig
▁c res
▁c ab
▁c um
▁c ity
▁c ak
▁c li
▁c all
▁c ited
▁c ard
▁c roc
▁c ity,
▁c amp
▁c ott
▁c ricket
▁c aval
▁c ropp
▁c uff
▁c reate
ed als
ed abad
ed a—
it .
it ar
it s,
it im
it ter
it ated
it ous
it age
it ies,
it ies.
it ual
it tle
it ched
ar .
ar p
ar t
ar as
ar s,
ar ter
ar ated
ar ting
ar ket
ar hi,
ar la
ar cation
ar ji
ar less
ar āham
▁In dust
▁In tell
▁In stead
▁w il
▁w ra
▁w ill
▁w age
▁w ild
▁w alled
▁w ai
▁w anted
▁w here
▁w edd
▁w idespread
▁w ood,
▁w aters
▁in ,
▁in .
▁in ve
▁in dic
▁in ternal
▁in val
▁in vention
▁in sur
▁in gest
▁in vasive
▁in gredi
▁in scription
▁s al
▁s ol
▁s us
▁s em
▁s her
▁s ac
▁s ame
▁s ap
▁s ine
▁s ide
▁s ust
▁s lowing
▁s outheast
▁s ales
▁s ites,
▁s ung
▁s andy
▁s ari,
▁s idel
▁s ought
▁s ources
▁s aute
▁s lid
▁s anct
▁s itar
or ,
or =
or ation
or ad
or se
or ism
or ally
or ation,
or iz
or ities
or arji
ion ed
ion s.
ion als,
▁b es
▁b ur
▁b ig
▁b ak
▁b ust
▁b lowing
▁b ird
▁b odi
▁b orne
▁b itter
▁p ul
▁p ac
▁p ay
▁p ill
▁p iv
▁p av
▁p ap
▁p ree
▁p ron
▁p anc
▁p ants
▁p oss
▁p ran
▁p oul
▁p anch
▁p uls
▁p ost-
▁p ants,
▁p aid
▁p iec
▁p oet
▁p yjam
es "
es ;
es e
es i
es ans
es erv
ic ed
ic s,
ic us
ic s.
ic ide
ic ially
ic hes
▁m ing
▁m ent
▁m ort
▁m ud
▁m ant
▁m el
▁m oun
▁m ass
▁m ust
▁m ight
▁m iss
▁m eter
▁m yst
▁m edals
▁m orally
▁f ul
▁f le
▁f ut
▁f un
▁f oc
▁f el
▁f oun
▁f end
▁f ew
▁f ine
▁f ell
▁f ree
▁f lowing
▁f ix
▁f oss
▁f ables,
▁f aith
▁f ie
▁f illed
▁f ought
▁f eud
▁f inal
▁f reed
▁क िए
▁क श्म
is )
is i
is is
is ak
is ks
is ively
ing ent
ing ly
ing a,
ing ual
as :
as ing
as im
as cent
as ants
as is.
as ured
as kara
as lila
as aras
ent )
ent s
ent al
ent ed
ent il
ent ry
ent red
ent ments
ent h-largest
▁l ist
▁l op
▁l ear
▁l ine
▁l ately
▁l ack
▁l ost
▁l ived
▁l ying
▁l ines
▁l osing
▁l ux
▁l inks
▁l ongest
▁l ittle
▁l entil
om o
om ic
om ot
om es,
om mend
om passing
om adic
om erations
▁India ;
▁India –Pakistan
▁e le
▁e mer
▁e igh
▁e ty
▁e mit
▁e ach
▁e miss
▁e mission
▁e vidence
▁e colog
▁e aten
ou s,
ou red
ou bled
▁to ad
▁to ward
▁to ler
▁1 st
▁1 0,
▁1 5,
▁1 5.
▁1 4%
▁1 3.
▁1 %.
▁1 4.
▁1 1%
▁1 40
ার ্য
▁स श
▁स हा
▁स फल
▁स ोव
▁T ra
▁T ro
▁T ow
▁T el
▁T od
▁T ap
▁T ech
▁T ai
▁T 20
▁T ash
▁T eth
▁T iger
▁T rigonomet
ly ing
ly mp
ly wo
ly -d
▁h am
▁h oc
▁h our
▁h ome
▁h ood
▁h und
▁h old
▁h arsh
▁h onour
▁h oriz
▁h omes,
▁d ur
▁d ol
▁d et
▁d ate
▁d ay
▁d el
▁d ress
▁d ry
▁d ates
▁d ens
▁d rough
▁d aw
▁d anc
▁d ai
▁d ata
▁d ry,
▁d ining
▁d eter
▁d ances,
▁d one
▁d ata,
▁d ropp
▁d osa,
▁d espite
▁d oubled
ur ally
ur u,
ur iant
ur gence
ur sions
ec og
ec ific
▁re ve
▁re mit
▁re ach
▁re lied
▁re ject
▁re organ
▁re hab
▁re -el
▁re alms
▁n or
▁n oun
▁n orm
▁n ative
▁n aval
▁n app
▁n ascent
▁n omadic
▁g ir
▁g ill
▁g ap
▁g har
▁g ives
▁g ross
▁g old
▁g rid
▁g iant
▁g inger
▁g lac
▁g oals
▁g uidel
▁g entry
▁म ी
▁म ौर
▁A ver
▁A ry
▁A pp
▁A hm
▁A tal
▁A cross
▁A mar
▁A dministr
▁A ugust
▁A zadi
▁A ṣṭ
▁A divas
il s
il ed
il es
il i,
il ingual
th .
▁ह र
▁ह स्त
▁ह ॉकी
ver ,"
▁স ফ
▁স ্ত
▁স ুপ
▁স কল
▁স ভ্য
▁C ong
▁C her
▁C rit
▁C ap
▁C ens
▁C hen
▁C redi
▁C old
▁C uis
▁C rown
▁C oast
▁C anad
▁C entred
ol ith
ol i,
ol ution
ol ished
ol ls
ol kata,
ol onisation
ol ars,
ol lywo
ul ,
ul a
ul e
ul ly
ul ation
ul ated
ul e,
ul ating
ul aic
ul ner
ul ba
ul gation
ri ;
ri ed
ri age
ri ff
ri ved
ri es.
ri mary
ri fices
ri ke
ri ver,"
▁प ी
্য াল
्र िय
ra y
ra in
ra ch
ra dually
ra struc
ra desh
ra its,
▁B ut
▁B ab
▁B od
▁B oth
▁B ound
▁B ef
▁B ook
▁B oulder
▁B edd
▁B ased
▁B akh
▁B ollywo
ation .
▁S ang
▁S up
▁S ch
▁S port
▁S ign
▁S ange
▁S und
▁S ched
▁S anch
▁S indh
▁S ettled
▁S ind
▁S rin
▁S ūtr
▁S anam
▁S onia
▁S atpur
▁ব ো
▁ব াম
▁ব েশ
▁ব ঙ্গ
▁ব েস
▁ব র্ধ
▁ব হি
am .
am s
am om
am s,
am un
am ples
am ese,
am tre.
▁2 4%
▁2 %.
▁2 6,
▁2 6.
▁2 7%
▁2 7.
▁2 8.7
ro id
ro ach
ro -p
ve ill
le av
le ph
le y)
ের ু
▁भ र
ce "
ce pt
ce ption
ut an
ut ch
ut ures
ut aries
▁19 01
▁19 11
▁is land
ist .
ist s,
ist ance
ist ics
▁( a
▁( an
▁( or
▁( বি
▁( 1.
▁( 3,
▁( i)
▁( alth
▁( 4,
▁( ".
▁( 400
▁( after
▁( ii)
▁( 1,3
▁( 200
▁( "b
▁( 'E
▁( GDP
▁( NDA
▁( [ɦ
▁( gener
▁( iii)
▁( liter
▁( present
▁( sine,
▁Indian ,
▁Indian -own
ast ing
ast est
ast ies,
ast oral
ad en
ad ur
ad a,
ad hav
ad rup
ad u;
ad vant
ad asis.
im s
im um
im e,
im edia
ig in
ig ence
ig ai
ig arhi,
ge ograph
ge bra.
00 9.
00 –19
00 –400
▁th in
▁th us
▁th ous
▁th icken
us ic
us sia,
▁ভ ৌগোলিক
▁P ain
▁P ud
▁P roc
▁P ach
▁P ash
▁P anch
▁P ali
▁P andy
▁P ost-
▁P yth
▁P ream
▁P aul
▁P eace
▁P hil
▁P āṇ
▁P rimary
▁P radesh
ow da
id ,
id ed
id ge
id ate
id ers
s. )
un touch
▁M ong
▁M ay
▁M ult
▁M inister
▁M eh
▁M ani
▁M igr
▁M edi
▁M edic
▁M eas
▁M anmo
▁M athem
▁M orarji
▁M adhav
▁M usic
▁ক ি
▁ক য়ে
▁ক াজ
ith metic
ith ili,
▁for ce
▁for ay
▁for ces
▁for ced
▁for bade
uc her
uc ture
्य ु
▁r un
▁r up
▁r ough
▁r ound
▁r ite
▁r ice
▁r ank
▁r ising
▁r ates,
▁r isen
▁r ush
▁r hyth
▁r itual
▁r iches
▁r isks
▁be ac
▁be ars
▁be yond
ment s,
▁ప ొ
▁ప ాత్ర
▁ప శ్చ
▁ప ైగా
ate .
ate gic,
▁con if
▁con qu
▁con dition
▁con sequent
▁con stitutes
ies ;
op y
op ped.
op eration,
tion s
tion ately
tion ary,
▁अ श
▁अ ति
▁अ नेक
em ,
em ale
▁as pect
ter y
ter ed
ter ies
ter culture
▁wh ite
▁wh ile
▁wh ims
▁st res
▁st ill
▁st up
▁st age
▁st able
▁st eat
▁st ood
▁st ands
▁st amp
▁st rid
▁st ressed
▁st one
▁st ret
▁st ory
▁st itched
▁st arting
▁st rike
▁st rain
▁st opped.
▁mo ved
▁mo ving
▁mo bility
▁E duc
▁E igh
▁E ach
▁E mb
▁E pic
▁E vidence
▁E sche
▁E leph
▁ভারত কে
res s,
res ident,
ార సత్వ
▁অ স
▁অ তি
▁অ ত্য
▁অ রণ
▁অ ঞ্চলে
rom os
▁ज ़
▁ज मा
▁न म
▁न ौसेना
▁ब ह
▁ब े
▁ब दल
▁ब जट
ain ed
▁व ाली
▁व ास्त
▁এ সে
▁it sel
▁ex ceed
▁ex ogam
▁ex cept
est ,
est s,
est -growing
est -B
▁di vided
▁di clo
▁di ox
లు .
her ing
▁H ell
▁H yder
▁H omo
▁D .
▁D og
▁D ire
▁D omin
▁D eter
▁D omestic
▁D espite
▁D ony
▁D NA
▁D hol
▁G od
▁G overn
▁G arb
▁G ov
▁G roup
▁G anweri
▁G radually
▁G owda
▁an ti-
▁द ी
▁द र्
▁द िव
ang ra
ang es.
ang ra,
या ।
ac ity
ac es,
ac y.
ac ture
ac -t
ac tional
ac cines
der ing
der s,
der s.
der 's
der ately
▁ম র্য
▁ম াইল
▁N o
▁N ot
▁N ag
▁N av
▁N ations
▁N ains
▁N ax
▁N aren
▁N oted
▁N adu;
▁or al
▁or der
▁or ders
ab hat
ab oration
ial ,
um ped
gh t.
gh anistan
▁on ward
▁र ख
▁र ूस
ill ing
িত ্ত
িত ীয়
ort ant
▁প্র ক
▁প্র বর্ত
▁প্র ভৃতি
up ati
▁ar c
▁ar ts
▁ar ranged
▁ar rived
▁ar ray
▁ar ithmetic
▁ar teries
▁20 %
▁20 30.
▁which ,
ud ra,
ud aism,
▁ও ঠে।
▁un con
▁un if
▁un dis
▁un eas
▁un iqu
▁un lin
▁un ivers
▁un pre
▁un wanted
▁un anim
▁un rest
▁un leav
▁আ ক
▁আ ম
▁আ র্থ
▁আ র্ক
▁আ বার
▁আ ফ্রিক
con tent
ure -l
▁are a,
▁are as,
▁are nas,
▁par ity
▁par alle
▁par ks
▁క ్య
ak er
ak e.
ak ti
ak ening
oc k
oc al
rit i,
rit ion,
li hood
li an;
li er.
▁त ीन
▁त नाव
▁त ुल
▁त रह
▁प्र दान
▁प्र णाली
ant a
ant ly
ant icide
▁inc lus
▁inc remental
over ,
ot .
ot a
ot e
ot al
ot i,
ot ta
ot hes
du e
du al
▁al low
▁al lowing
▁al lu
▁al tern
▁al mond
▁al gebra.
▁com mission
▁com mun
▁com bined
el ag
oun ced
oun ger
iv es,
iv asa
▁వ హ
▁వ ై
▁వ ారసత్వ
▁বি গত
end ed
end ing.
్య ాయ
▁v ulture
▁v ice
▁v alue
▁v ulner
▁v accines
▁উ ভ
▁উ ন্ন
▁উ ঠে
▁উ ত্থান
▁మ ే
▁మ ాత్ర
▁से ,
▁W ith
▁W ik
▁W hen
▁W ar,
▁W eb
▁W idespread
▁W hether
ch asing
▁de al
▁de ep
▁de ath
▁de ems
▁de bate
▁de position
▁U day
▁U tt
od ,
si e
si ble
▁co re
▁co operation
▁co herent
▁co dified
▁co -operation
▁co ins.
న్ మ
▁wor ks
▁wor k,
▁wor king
▁wor ks,
▁wor shi
our s.
our se
our ces,
og urt
▁R ig
▁R ef
▁R ice
▁R ann
▁R uk
▁R akh
▁R ao,
▁R iver
▁R āmā
▁R eserv
▁R aslila
▁R ussia,
▁R idge
ect ing
ect anc
▁part ies
▁part ies.
▁part ners.
▁आ प
▁आ य
▁आ स
▁ch all
▁ch ik
▁ch ose
▁ch ange
▁ch ains
▁ch anged
▁ch icken
▁ch ronic
▁ch oic
▁ch atur
▁ch oli,
▁ch anges.
▁sp ok
▁sp ite
▁sp ons
▁sp ices
▁sp eed
▁sp lit
▁sp ring,
▁sp iced
▁sp ending.
▁pro ces
▁pro per
▁pro por
▁pro claiming
▁pro fess
▁pro posed
▁cont ext
▁cont emporary
▁cont ours.
▁Hin dus
ag ing
ag ore
ag es.
ag upt
ag ed.
ag onists
ous ers,
ous ands
▁at op
▁at tain
▁at ypically
▁at olls
age ment
age able
▁उ से
▁उ ष्ण
▁ర ంగ
▁ర కాల
av ily
av ati,
av ari,
av arsh
av ira,
ిక ,
ిక త
ిక ్
ct ory
if ically
if t-h
ర్ జ
స్ ,
low s.
os :
os ;
os ite
ाल र
▁ल ड़ा
▁ल ंबे
ish ing
ish ment
ish ya,
ish vara
ass oci
ass lands
ore sted,
▁201 0,
▁201 7,
▁201 3.
▁201 8.
▁201 7.
াম ের
াম ান
▁J ap
▁J ust
▁J udaism,
▁Ch ord
▁Ch ronic
▁Ch aran
▁Ch aud
▁Ch ief
▁Ch romos
▁Ch ota
ution "
▁K sh
▁K arn
▁K ingdom
▁K ann
▁K ey
▁K rish
▁K onkani
▁K arla
▁K olkata,
▁K utch
▁per form
▁per vasive
▁per haps
▁per man
▁per ception
▁mar ble
▁mar ma
▁mar ital
▁mar tial
▁mar inade
▁mar itim
▁econom ically
▁form .
▁form s,
▁form erly
▁form ations,
▁form ulaic
ap on
ap ed
▁इ ंद
▁श क्त
▁श हर
▁श क्ति
▁श हरी
▁पर िण
▁पर ीक्ष
▁reg ard
▁reg ulation
illion -work
▁అ వ
▁అ ని
▁pl ural
▁pl ants
▁pl ann
▁pl aced
▁pl aces,
▁वि रो
mer ic,
న్న ాయి.
▁k abad
▁k illed
▁k eep
▁k nees.
▁k atab
▁k ingly
▁k illing
▁k riti,
▁ad versity
▁ad verse
▁ad equ
▁ad hered
▁ad herent
▁ad join
▁ad minister
▁ad hering
▁cl ans,
▁cl othes
▁se en
▁se as,
▁se vent
▁se af
▁se als,
▁se aled
▁se al,
▁se eking
▁se greg
▁se ams
▁sub duc
▁sub ord
▁sub cast
▁sub ject
▁sub duction
▁sub -cast
▁sub tropical
▁sub due
▁le af
▁le xic
ire ty.
কে ন্দ্র
ষ্ ণ
ষ্ টি
▁y ards
▁y ounger
▁y ogurt
▁el ite
▁el ders.
▁V iet
▁V indh
▁V irt
▁V -D
▁V eda—
▁V arāham
ence ,
▁हैं :
▁F ed
▁F our
▁F urther
▁F aith
▁F rance,
▁F icus
▁F ully
▁F utures
▁F emale
▁গ ুর
▁গ ান্
ener ational
▁government ;
▁government 's
াত া
port .
াব ্য
▁Hindu ,
▁Hindu s,
▁Hindu -majority
▁Hindu –Ara
qu ef
▁O pen
▁O riya,
▁O fficial
▁O nions,
▁O disha
▁O lymp
▁pri de,
▁pri vate
▁pri orities
▁pri ests,
▁dec imal
▁dec entral
▁dec isions
▁dec enn
▁dec oration,
▁dec isively
▁dec olonisation
▁art .
▁art s,
▁art s.
▁art ists
▁art ists,
▁world ,
▁world wide
▁region ,
▁region ally
▁region -sp
▁য থাক
ok ing
ates .
▁Asi atic
duc ing
ew ed
▁Ind os
▁Ind oi,
ome 's
pp =
pp ed
pp ayat
▁tra ded
▁tra ining
▁tra ders,
▁ag gl
▁ag ro-p
▁sy mb
▁sy ncre
▁comp lic
▁comp ared
▁comp osition
▁comp osite
▁year ,
▁year -r
dition al
▁ने हर
dern ess
िय त
all ing
▁कर ते
▁कर ती
ff s;
ff alo
oth ing
▁3 %
▁3 1,
▁3 6%
▁3 1.
▁3 9%
▁3 ,000
▁3 1.1
▁3 5°
▁১ ৮
▁end ogam
▁end eav
▁end —passing
▁sh ook
▁sh orter
▁sh ares
▁sh irt
▁sh arp
▁सा ं
ection .
ection s,
ection ist
▁includ ed
▁includ ed.
▁5 %
▁5 3
▁5 th
▁5 3%
▁5 0,000
▁5 %,
▁5 80
▁5 22
▁5 96
▁5 ,42
▁200 3
▁200 1.
▁200 8–2
igh at
ign ed
ign ated
▁" out
▁" pro
▁" no
▁" the
▁" down
▁" Aph
▁" Green
▁" Min
▁" bro
▁" national
▁" official
▁" pure
▁" sched
▁" river,"
▁" untouch
▁" associ
▁L al
▁L ok
▁L ord
▁L ond
▁L ef
▁L ao
▁L iber
▁L ocal
▁य हाँ
▁over all
▁over laps
▁res erv
▁res erved
▁res ources
▁res erve
▁res entments
▁res urgence
▁res olution
▁res istance
▁res ources,
▁system 's
▁system atic
▁7 %
▁7 0
▁7 ′
▁7 4%
▁7 9.
▁7 %,
▁7 00–400
hi p
▁च ी
ని స్త
▁ri vers
▁ri gid
▁had ,
▁সং স্কার
ational ,
▁राज वं
ন্দ ি
▁Un der
▁Un til
▁Un touchability
াহ ি
▁4 6%
▁4 5.
▁4 9.
▁4 1%
▁4 3%
▁4 0,000
▁4 1.1
▁4 31
▁4 4′
▁195 7,
▁195 6,
ాయ క
ine al
ine ering
▁196 7,
▁196 2,
▁196 6,
▁196 4,
▁196 2.
▁196 4–201
dh anar
ric ity
ric t,
ric tions
▁inf ections
▁inf rastruc
▁inf anticide
▁inf lows.
▁inf ection.
▁sup eri
▁me al
▁me et
▁me dian
▁me asures
▁me ets
▁me asured
▁cons ci
▁cons erv
▁cons pic
▁cons istent
▁more over,
▁relig ions,
▁South ,
ाष ी
▁after ;
▁after ward
atic s
▁pe ak
▁pe ep
▁pe hl
▁pe asants
▁million -pl
▁minister ;
▁num erous
▁gener ic
▁gener ation
▁gener ate
▁gener ally
▁gener ally,
▁modern ,
▁modern -day
▁increas e
ound .
▁থ াক
▁202 4
▁202 6
▁202 1,
▁202 0.
▁202 3,
▁202 4.
▁202 6.
▁202 4,
sh ali
▁সম য়ে
▁সম গ্র
▁সম ্ম
▁इस े
▁इस का
▁इस में
▁इस ्ल
pt ember
▁he re.
▁he lped
▁he art
▁he avily
▁im por
▁im mense
▁im itated
▁ca re.
▁ca ret
▁long .
▁long -l
▁long itud
▁long -ter
▁सम झ
▁सम ृद्ध
▁199 4
▁199 5.
▁199 1.
▁199 6,
▁199 8.
▁rul er
▁rul e,
▁rul ers
▁rul ers,
▁dis pro
▁dis band
▁dis rupt
▁dis hes.
▁dis advant
▁dis content
▁tradition .
▁tradition s,
కు ంట
▁ই টাল
ren ched
ren ce"
ition s
▁Congress 's
▁Congress ")
▁করে ছে
▁করে ছিল
▁করে ন।
ph ies.
ph in.
▁१ ५
▁cast es,
▁cast e,
▁cast e.
▁sc ience.
▁ser ies
▁ser ies.
▁ser ving
▁soc ially
▁soc io-
▁BCE )
▁BCE ;
▁BCE ),
istan ,
▁Empire ,
▁Empire s.
▁Empire );
▁under ,
▁under -f
▁under ground
▁under skir
▁under went
▁class es.
ik a
ep er
াদ া
াদ ি
াদ ে
াদ ের
▁An y
▁An th
▁Con vention
▁Con cur
ian s.)
ince ly
▁British ,
rough out
▁urban ;
ond rial
▁coun ted
▁coun cil
▁coun terculture
▁off er
▁off icially
isation ,
▁not ably
▁grow n
▁grow ing,
▁grow ing.
▁exp ected
▁exp eri
▁exp endi
▁exp anded
▁exp ectanc
▁election s,
▁population .
▁number ,
▁Buddh a.
াপ ক
ৃত ।
▁ఇ వ
▁जा ति
▁হয় ,
0, 19
6% ;
ef ined
ef inite
▁২ ৮
eng es
▁নি দর্শ
lo or
ell ate
▁ter rac
▁fol k,
▁land ed
▁land sl
▁land own
▁land mas
▁land mar
▁ear th.
▁dance ,
▁dance .
▁rec ording
▁rec ommend
▁rec ourse
▁nort heast
▁north .
▁north ;
▁north -w
▁north -east
▁हो ना
rib es
▁began ,
▁began .
▁194 6
▁194 9
▁194 9.
▁194 7.
▁১৯ ৪৭
▁থেকে ই
mon s
mon ary
ni zed
vi ous
vi ew
తి ,
▁উপ গ্রহ
ci ary
িয় ান
▁j ean
▁j oin
▁j udi
▁j az
▁j atis
▁ra w
▁ra ising
▁ra ga
▁ra iding
▁ra ksha
▁ra infall
▁ra rely
▁ra iders
▁up on
▁up sur
▁app are
▁app ellate
▁18 ,
▁18 20
▁18 %,
▁18 .1
▁18 48
▁18 85.
▁18 91,
▁rep uls
▁rep ressive
▁rep laced
▁Pakistan 's
▁economic ,
▁economic s.
▁later .
▁caste -b
▁caste -re
▁नि म्
▁দেশ জ
▁দেশ ীয়
7, 663
▁চ ীন
ard ;
▁ఆ క్రమ
▁ఆ ఫ్
▁CE )
▁CE ),
▁CE ).
ular ities
aw ed
aw ay
per atures
▁there .
▁there by
▁ab sol
▁ab jured
▁ab sence
▁ab olished
▁sec ure
▁power s
▁hum ped
▁hum id,
▁Al most
raph —w
▁spec ifically
▁subcontinent .
▁subcontinent 's
▁peop les,
▁count ries
▁count ries.
velop ment
ల్ లో
▁Th ree
▁Th anjav
▁Th ousands
▁Th roughout
S$ 3.
▁খ নি
▁Mo st
▁Mo vement
▁Mo derately
ाम स्व
ative ,
ised ,
ex e
pl ace
rol eum
sl iding
ty -n
ty —ex
▁6 3
▁6 °
▁6 5.
▁6 3.8
▁6 .0%
▁6 8°
hem ical
▁cour se
▁cour ts
▁cour t,
ari ;
ari ppayat
▁war ,
▁war .
▁war s
▁war s.
▁war mer
▁mus ical
▁mus ics
▁mid -m
▁mid riff
▁milit ants
▁emerg ing
▁emerg ence
▁emerg ency,
▁histor y
▁histor ies
▁histor y.
▁new ly
▁nuclear -we
▁198 1
▁198 0.
▁198 5.
▁198 4.
▁198 8.
▁198 9,
▁198 5;
▁state .
▁state :
▁state 's
▁develop .
▁develop ing
▁develop ed,
▁Chin a.
▁Chin ese
▁largest ,
▁largest .
▁river ,
▁river -b
▁people ,
▁people .
▁Mughal s
▁Ma hat
▁Ma han
▁Ma hā
▁Ma hav
▁Ma oist
▁Ma ithili,
▁న ా
▁న ్యాయ
▁US$ 3,
▁US$ 42
▁US$ 64
▁US$ 1,3
▁US$ 30
▁US$ 24.4
▁2011 .
5. 24
ess ed
▁12 %
▁12 .6%
▁12 .2%
▁12 06.
▁St atist
▁राज्य सभा
▁Sanskrit )
▁Sanskrit .
ten ment.
ंध ु
ంట ే
▁them ,
▁set back
▁set tling
▁bas in
▁bas in,
▁bas is.
▁bas in.
▁ref ined
▁non- European
▁non- economic
▁non- Muslim
▁non- tra
vement ;
▁though t,
▁through out
▁constitution )
▁constitution ,
▁East ,
ograph y
▁lead s
▁lead er
▁social ist
▁Bengal ,
▁Bengal .
▁Bengal ;
▁Bengal i,
▁Bengal uru,
▁Punjab i
▁Punjab i,
ము .
ము లో
▁9 %
▁9 th
▁9 00
▁9 3.
▁9 %.
▁9 40
▁9 .3
▁9 7°
▁197 2,
▁197 0–19
▁వి భ
▁వి స్త
ుత ున్న
▁గ ు
▁గ ో
▁సం క
▁సం ఘ
▁సం వత్
▁సం ప్రదాయ
▁उत ्
▁Comp rehen
ta iled
▁8 th
▁8 00
▁8 0,000
▁8 2.
▁8 .6%
▁tr ousers,
▁other s.
▁cr ises
▁cr isis
▁sign ing
▁billion .
▁pre fer
▁pre cise
▁pre -ex
▁pre pared
▁pre vail
▁pre yed
▁pre vious
▁main land
▁main tains
▁main stream
▁millennium ,
▁millennium .
▁far ther
▁far -f
▁far -ri
▁far away
▁gr ands
▁gr anted
▁gr andmast
▁gr asslands
▁gra zed
▁gra mm
▁gra in-pro
▁gra dual
▁Sik kim
roc hemical
▁rural -urban
▁dire ction
▁dire ctions
▁one 's
ritor y
▁def eat
▁def ined
▁def ining
▁def orested,
▁def ence,
▁Asia 's
▁Asia —dates
▁Indus ;
▁Indus '.
▁Indo- Isl
▁religi osa,
▁polit ics
▁served ,
▁forest s
▁music ians
▁life ;
▁life -f
ीं ।
াগ রে
▁col d
▁पू रा
▁पू रे
भा ग
▁Sh ank
▁Sh alw
▁Sh aiv
▁Sh udra,
▁En ergy
ru ments
ली वि
▁বৃ দ্ধির
▁साम रिक
క్ష రా
▁Plate ,
19 th
mit tent
odi ment
odi a,
odi lian;
put ed
vid e,
vid ual
िम ण्ड
▁२ ४
▁en ligh
▁en vir
▁us ing
▁us age
▁us hered
▁out put
▁out side
▁out post
▁Isl ands
▁Isl am.
▁culture ,
▁culture ;
▁culture —to
▁we ight
▁we alth
▁we akening
▁wide ly,
▁sur passing
▁sur round
▁sur veill
▁found ,
▁found ed
▁found ing
▁found ation
▁found ations
▁loc ations
▁great ly
▁Central ,
▁भाषा एं
▁Muslim s
▁Muslim s,
▁Muslim -majority
▁Gand hi,
▁central ised,
▁coal -r
▁coal esc
▁coast ;
▁coast s
▁coast s.
▁control led
▁Jain .
▁Jain s,
▁Jain ism.
▁economy ;
▁plain ,
▁plain .
▁plain ly
▁plain s.
▁विश ेष
▁growth .
▁territor y
▁following ,
▁following :
▁country .
▁court esans
▁emerged ,
▁emerged .
▁Company 's
▁Company —sol
▁trans mission
▁trans lating
▁trans actional
▁Sikh ,
▁Sikh ism
▁Sikh ism,
▁Sikh ism.
▁religious -
▁women ,
▁সরকার ের
టి లో
▁17 )
▁17 2
▁17 65
nolog ical
వి స్త
▁Europ e,
ach ings
▁సా ం
▁సా ంప
-s ettled
-s erving
-s ided
JP );
af .
are tt
oin ted
vol ution"
ya ṇa,
সং ক্রান্ত
▁| co
▁| nop
▁| publisher
▁ent ered
▁ent repren
▁ent irety.
▁ent renched
▁her bal
▁her ds
▁her itage
ank ing
ank ari;
▁origin s,
▁origin ated
▁cap ped
▁cap ability
▁cap acity
▁indust ry,
▁bi as,
▁bi ological
▁bi osphere
▁bir ch
▁bir yan
▁feat uring
▁li e
▁li quef
▁dra wn
▁dra ped.
▁dra fted
▁dra wstr
▁ne ed
▁ne ither
▁ne gative
▁ne olith
▁ne em,
▁पा या
istic ,
und ale
▁stat es,
▁stat istics
▁movement s.
▁export ing
▁animal s,
▁arm y
▁arch ip
▁dev das
▁dev adasis.
▁party ;
▁Hindi ,
▁Hindi 's
▁marri es
▁marri ageable
▁leg al
▁leg acy.
▁support ,
▁sculpt ing
▁sculpt ors
▁majority .
▁Constitution .
▁second -f
▁occup y
▁occup ies
▁occup ational
▁occup ying
▁occup ations.
▁direct ors
▁direct ives,
▁local ,
▁local ised
▁Gandhi .
▁Gandhi an
▁painting .
▁Nehru ,
▁Nehru 's
▁English ,
बंध ीय
▁Y amun
▁फ ैली
▁15 th
▁15 00
▁15 (2)
▁15 25
▁মহ ান
▁প্রতি যোগিত
াই ভকৃত
▁1, 42
▁1, 21
▁Se ptember
▁దేశ ాలలో
▁Tamil .
cent -sh
min i
min ed
min ster
▁roc ked
str ung
ati ya
▁car ry
▁car bon
▁car rion
▁car ried
▁well ,
▁well .
▁well -reg
▁well -settled
▁ind efinite
▁inter est
▁inter vene
▁inter vals
▁inter mittent
▁sm ooth
▁sm oking
▁sultanate ,
▁sultanate 's
▁prom ised
▁prom otion
▁prom ulgation
▁prom ote
▁penins ula
▁low .
▁low ;
▁low -inc
▁low est,
▁lower ed
▁lower -body
▁1. 3
▁1. 4
▁1. 5
▁1. 7%
▁1. 24
▁1. 6%;
▁national ism.
▁Bi osphere
▁Bi bli
▁BJP ,
▁ব্য বহ
▁ব্য াপক
amm a
leg al
leg raph—w
▁rates ).
▁states .
▁states :
▁execut ives
▁contin ue
▁contin ental
▁sever e
▁sever ity
▁languages :
▁languages ".
▁decl ine
▁decl ining
▁decl ares
▁decl ined,
▁popular .
▁popular ity
▁endem ic
▁endem ism
▁endem ics
▁endem ism.
▁endem ic,
▁endem ic.
▁Buddhist ,
▁Buddhist s.
▁earli er
▁republic .
▁republic ;
▁influenc es,
▁China 's
▁রাজ্য ে
▁styl es.
▁mathematic s.
▁technolog ical
▁technolog y,
▁Persi a.
▁educ ation,
▁Andaman ,
▁Andaman ese,
ంచ ి
rac ing
▁ভাষ ার
▁భా గ
▁రై ళ్ల
०० ०
গত ভাবে
inc ial
inc es,
▁সর্ব ো
▁193 5
▁193 5,
▁193 5.
▁New s
▁New ly
▁Raj ya
-m arket
-m illion-work
ah ism,
adi ,
adi ly
eak ing
gen y,
ture .
val li
wan i
wan is
wan athan
ভূ ম
▁z ones
▁z eb
▁z oo
▁z one.
▁z ero
▁tem ple
▁trib es
▁trib utaries
▁tex ts,
▁aff ected
▁ob lig
▁old .
▁cur rent
▁cur tailed
▁civil isation
ars is
▁win ter
▁win ning
▁west ,
▁west ;
▁indi vidual
▁sing ers.
▁sch olars,
ors =
ors hip
▁bl ouse
▁bl urred
▁bl ock
▁member s
▁fl anked
▁fl awed
▁fl anking
▁fast er
▁fast -growing
▁fast ening.
▁fast est-growing
▁fac es
▁fac ilitated
▁famil ies.
▁eth nic
▁eth ically,
▁eth os.
▁empire 's
▁every where
▁सि ंधु
▁domin ions,
▁ren dering
▁gen etic
▁gen ders
▁gen res,
▁gar ments
▁gar ment,
▁gar ment.
▁glo bally.
▁Af ghanistan
▁Ara vall
▁Ara valli
▁Bhar atiya
▁2. 5
▁2. 3%
▁2. 9%
▁three -t
▁conduc t,
▁str ucture
▁str ategic,
▁dist ance,
▁dist rict,
▁ann exe
▁vill ages
▁vill ages.
▁vari ations
▁vari ed,
▁vari ety
▁char ts,
▁char tered
▁prot agonists
▁prot ectionist
▁Kashm iri,
▁kingdom s.
▁administr ative
▁administr ation,
▁administr ator
▁comple ted
▁comple te
▁comple mented
▁consid ered
▁consid ering
▁religions :
▁polic ies,
▁caus es
▁caus ing
▁caus e.
स्क ृतिक
▁రాష్ట్ర ాల
▁రాష్ట్ర ాలు
▁estim ating
▁establ ishment
▁significant ly
▁employ ing
▁employ ment
▁group s
▁group s,
▁group ings
▁surv ive
▁surv ived
▁surv iving
▁birth s
▁birth s.
▁birth place
▁liber ty
▁liber ties.
▁differ ences
▁legisl ative
▁legisl ation,
▁legisl atures
▁sculpture ,
▁rock y
▁Persian ised
▁Persian -der
▁Brahm in,
▁Brahm anism,
▁Brahm agupt
▁ड ालर
▁ల ే
▁ల క్ష
▁Ar t,
▁Ar dhanar
▁Ar undale
▁Pres s,
▁Pres ident
▁Pres ident,
▁बढ़ ती
▁হয়ে ছিল
▁দ্ব ারা
▁দ্ব িতীয়
▁उप योग
▁భారతదేశ పు
8, 62
পি পি
ణా సియా
▁छ ोटे
▁ঘ োষ
▁లో క్
▁ము ంబ
▁Re bellion
▁Re organ
▁Re port.
▁Re volution"
20 th
20 4.4
cast s
cast es"
p. ")
por tionately
ator y
ator y.
▁13 00
▁मिल ा
▁Ass amese,
▁Singh ,
▁Des ai
▁Des ert
▁संघ ीय
▁50 –60%
cess ful
-r ule,
-r umped
han ,
i- Pol
line .
te enth-largest
tic oat
काल ीन
কাল ের
ాన్ ,
▁er a,
▁ve hic
▁qu ite
▁qu ality
▁qu arter
▁qu adrup
▁tur n
▁tur meric,
▁tax es
▁tax ation
▁tax es,
▁tax pay
dis crimin
▁can on
▁can alled
▁can als,
▁can opy
▁che ap
▁che cked
▁cult urally
▁writ ing,
▁wear ,
▁wear er's
▁waist .
▁waist line.
▁so jour
▁sum mary
▁saf ety
▁body 's
▁body guard
▁pract ice
▁pract ices
▁man agement
▁mon key
▁mon tan
▁mult iple
▁mult ilingual
▁fam ine
▁fam ines,
▁lo yal
▁lay ered
▁equ ates
▁equ ator
▁equ ival
▁equ alling
▁der ives
▁der ived
▁der iving
▁der ecog
▁ret reat
▁nat ural
▁near ly
▁near -di
▁Bh askara
▁Bh utan
▁Bh angra
▁Bh akti
▁(c a.
▁ভূ খণ্ড
▁Par ty
▁Par ty,
▁Par che
▁Par vati.
