{"<0x00>":0,"<0x01>":1,"<0x02>":2,"<0x03>":3,"<0x04>":4,"<0x05>":5,"<0x06>":6,"<0x07>":7,"<0x08>":8,"<0x09>":9,"<0x0A>":10,"<0x0B>":11,"<0x0C>":12,"<0x0D>":13,"<0x0E>":14,"<0x0F>":15,"<0x10>":16,"<0x11>":17,"<0x12>":18,"<0x13>":19,"<0x14>":20,"<0x15>":21,"<0x16>":22,"<0x17>":23,"<0x18>":24,"<0x19>":25,"<0x1A>":26,"<0x1B>":27,"<0x1C>":28,"<0x1D>":29,"<0x1E>":30,"<0x1F>":31,"<0x20>":32,"<0x21>":33,"<0x22>":34,"<0x23>":35,"<0x24>":36,"<0x25>":37,"<0x26>":38,"<0x27>":39,"<0x28>":40,"<0x29>":41,"<0x2A>":42,"<0x2B>":43,"<0x2C>":44,"<0x2D>":45,"<0x2E>":46,"<0x2F>":47,"<0x30>":48,"<0x31>":49,"<0x32>":50,"<0x33>":51,"<0x34>":52,"<0x35>":53,"<0x36>":54,"<0x37>":55,"<0x38>":56,"<0x39>":57,"<0x3A>":58,"<0x3B>":59,"<0x3C>":60,"<0x3D>":61,"<0x3E>":62,"<0x3F>":63,"<0x40>":64,"<0x41>":65,"<0x42>":66,"<0x43>":67,"<0x44>":68,"<0x45>":69,"<0x46>":70,"<0x47>":71,"<0x48>":72,"<0x49>":73,"<0x4A>":74,"<0x4B>":75,"<0x4C>":76,"<0x4D>":77,"<0x4E>":78,"<0x4F>":79,"<0x50>":80,"<0x51>":81,"<0x52>":82,"<0x53>":83,"<0x54>":84,"<0x55>":85,"<0x56>":86,"<0x57>":87,"<0x58>":88,"<0x59>":89,"<0x5A>":90,"<0x5B>":91,"<0x5C>":92,"<0x5D>":93,"<0x5E>":94,"<0x5F>":95,"<0x60>":96,"<0x61>":97,"<0x62>":98,"<0x63>":99,"<0x64>":100,"<0x65>":101,"<0x66>":102,"<0x67>":103,"<0x68>":104,"<0x69>":105,"<0x6A>":106,"<0x6B>":107,"<0x6C>":108,"<0x6D>":109,"<0x6E>":110,"<0x6F>":111,"<0x70>":112,"<0x71>":113,"<0x72>":114,"<0x73>":115,"<0x74>":116,"<0x75>":117,"<0x76>":118,"<0x77>":119,"<0x78>":120,"<0x79>":121,"<0x7A>":122,"<0x7B>":123,"<0x7C>":124,"<0x7D>":125,"<0x7E>":126,"<0x7F>":127,"<0x80>":128,"<0x81>":129,"<0x82>":130,"<0x83>":131,"<0x84>":132,"<0x85>":133,"<0x86>":134,"<0x87>":135,"<0x88>":136,"<0x89>":137,"<0x8A>":138,"<0x8B>":139,"<0x8C>":140,"<0x8D>":141,"<0x8E>":142,"<0x8F>":143,"<0x90>":144,"<0x91>":145,"<0x92>":146,"<0x93>":147,"<0x94>":148,"<0x95>":149,"<0x96>":150,"<0x97>":151,"<0x98>":152,"<0x99>":153,"<0x9A>":154,"<0x9B>":155,"<0x9C>":156,"<0x9D>":157,"<0x9E>":158,"<0x9F>":159,"<0xA0>":160,"<0xA1>":161,"<0xA2>":162,"<0xA3>":163,"<0xA4>":164,"<0xA5>":165,"<0xA6>":166,"<0xA7>":167,"<0xA8>":168,"<0xA9>":169,"<0xAA>":170,"<0xAB>":171,"<0xAC>":172,"<0xAD>":173,"<0xAE>":174,"<0xAF>":175,"<0xB0>":176,"<0xB1>":177,"<0xB2>":178,"<0xB3>":179,"<0xB4>":180,"<0xB5>":181,"<0xB6>":182,"<0xB7>":183,"<0xB8>":184,"<0xB9>":185,"<0xBA>":186,"<0xBB>":187,"<0xBC>":188,"<0xBD>":189,"<0xBE>":190,"<0xBF>":191,"<0xC0>":192,"<0xC1>":193,"<0xC2>":194,"<0xC3>":195,"<0xC4>":196,"<0xC5>":197,"<0xC6>":198,"<0xC7>":199,"<0xC8>":200,"<0xC9>":201,"<0xCA>":202,"<0xCB>":203,"<0xCC>":204,"<0xCD>":205,"<0xCE>":206,"<0xCF>":207,"<0xD0>":208,"<0xD1>":209,"<0xD2>":210,"<0xD3>":211,"<0xD4>":212,"<0xD5>":213,"<0xD6>":214,"<0xD7>":215,"<0xD8>":216,"<0xD9>":217,"<0xDA>":218,"<0xDB>":219,"<0xDC>":220,"<0xDD>":221,"<0xDE>":222,"<0xDF>":223,"<0xE0>":224,"<0xE1>":225,"<0xE2>":226,"<0xE3>":227,"<0xE4>":228,"<0xE5>":229,"<0xE6>":230,"<0xE7>":231,"<0xE8>":232,"<0xE9>":233,"<0xEA>":234,"<0xEB>":235,"<0xEC>":236,"<0xED>":237,"<0xEE>":238,"<0xEF>":239,"<0xF0>":240,"<0xF1>":241,"<0xF2>":242,"<0xF3>":243,"<0xF4>":244,"<0xF5>":245,"<0xF6>":246,"<0xF7>":247,"<0xF8>":248,"<0xF9>":249,"<0xFA>":250,"<0xFB>":251,"<0xFC>":252,"<0xFD>":253,"<0xFE>":254,"<0xFF>":255," ":256,"!":257,"\"":258,"#":259,"$":260,"%":261,"&":262,"'":263,"(":264,")":265,"*":266,"+":267,",":268,"-":269,".":270,"/":271,"0":272,"1":273,"2":274,"3":275,"4":276,"5":277,"6":278,"7":279,"8":280,"9":281,":":282,";":283,"<":284,"=":285,">":286,"?":287,"@":288,"A":289,"B":290,"C":291,"D":292,"E":293,"F":294,"G":295,"H":296,"I":297,"J":298,"K":299,"L":300,"M":301,"N":302,"O":303,"P":304,"Q":305,"R":306,"S":307,"T":308,"U":309,"V":310,"W":311,"X":312,"Y":313,"Z":314,"[":315,"\\":316,"]":317,"^":318,"_":319,"`":320,"a":321,"b":322,"c":323,"d":324,"e":325,"f":326,"g":327,"h":328,"i":329,"j":330,"k":331,"l":332,"m":333,"n":334,"o":335,"p":336,"q":337,"r":338,"s":339,"t":340,"u":341,"v":342,"w":343,"x":344,"y":345,"z":346,"{":347,"|":348,"}":349,"~":350," ":351,"¡":352,"¢":353,"£":354,"¤":355,"¥":356,"¦":357,"§":358,"¨":359,"©":360,"ª":361,"«":362,"¬":363,"­":364,"®":365,"¯":366,"°":367,"±":368,"²":369,"³":370,"´":371,"µ":372,"¶":373,"·":374,"¸":375,"¹":376,"º":377,"»":378,"¼":379,"½":380,"¾":381,"¿":382,"À":383,"Á":384,"Â":385,"Ã":386,"Ä":387,"Å":388,"Æ":389,"Ç":390,"È":391,"É":392,"Ê":393,"Ë":394,"Ì":395,"Í":396,"Î":397,"Ï":398,"Ð":399,"Ñ":400,"Ò":401,"Ó":402,"Ô":403,"Õ":404,"Ö":405,"×":406,"Ø":407,"Ù":408,"Ú":409,"Û":410,"Ü":411,"Ý":412,"Þ":413,"ß":414,"à":415,"á":416,"â":417,"ã":418,"ä":419,"å":420,"æ":421,"ç":422,"è":423,"é":424,"ê":425,"ë":426,"ì":427,"í":428,"î":429,"ï":430,"ð":431,"ñ":432,"ò":433,"ó":434,"ô":435,"õ":436,"ö":437,"÷":438,"ø":439,"ù":440,"ú":441,"û":442,"ü":443,"ý":444,"þ":445,"ÿ":446,"ā":447,"ī":448,"Ś":449,"ū":450,"ə":451,"ɦ":452,"ɪ":453,"ɾ":454,"ʊ":455,"ʱ":456,"ˈ":457,"ː":458,"ί":459,"α":460,"δ":461,"ν":462,"ο":463,"ς":464,"ό":465,"ँ":466,"ं":467,"ः":468,"अ":469,"आ":470,"इ":471,"ई":472,"उ":473,"ऊ":474,"ऋ":475,"ए":476,"ऐ":477,"ऑ":478,"ओ":479,"औ":480,"क":481,"ख":482,"ग":483,"घ":484,"च":485,"छ":486,"ज":487,"झ":488,"ञ":489,"ट":490,"ठ":491,"ड":492,"ढ":493,"ण":494,"त":495,"थ":496,"द":497,"ध":498,"न":499,"प":500,"फ":501,"ब":502,"भ":503,"म":504,"य":505,"र":506,"ल":507,"व":508,"श":509,"ष":510,"स":511,"ह":512,"़":513,"ा":514,"ि":515,"ी":516,"ु":517,"ू":518,"ृ":519,"े":520,"ै":521,"ॉ":522,"ो":523,"ौ":524,"्":525,"।":526,"०":527,"१":528,"२":529,"३":530,"४":531,"५":532,"६":533,"७":534,"८":535,"९":536,"॰":537,"ঁ":538,"ং":539,"ঃ":540,"অ":541,"আ":542,"ই":543,"ঈ":544,"উ":545,"ঊ":546,"ঋ":547,"এ":548,"ঐ":549,"ও":550,"ক":551,"খ":552,"গ":553,"ঘ":554,"ঙ":555,"চ":556,"ছ":557,"জ":558,"ঝ":559,"ঞ":560,"ট":561,"ঠ":562,"ড":563,"ঢ":564,"ণ":565,"ত":566,"থ":567,"দ":568,"ধ":569,"ন":570,"প":571,"ফ":572,"ব":573,"ভ":574,"ম":575,"য":576,"র":577,"ল":578,"শ":579,"ষ":580,"স":581,"হ":582,"়":583,"া":584,"ি":585,"ী":586,"ু":587,"ূ":588,"ৃ":589,"ে":590,"ৈ":591,"ো":592,"ৌ":593,"্":594,"ৎ":595,"০":596,"১":597,"২":598,"৩":599,"৪":600,"৫":601,"৬":602,"৭":603,"৮":604,"৯":605,"ం":606,"ః":607,"అ":608,"ఆ":609,"ఇ":610,"ఈ":611,"ఉ":612,"ఋ":613,"ఎ":614,"ఏ":615,"ఐ":616,"ఒ":617,"ఓ":618,"ఔ":619,"క":620,"ఖ":621,"గ":622,"ఘ":623,"చ":624,"ఛ":625,"జ":626,"ఞ":627,"ట":628,"ఠ":629,"డ":630,"ఢ":631,"ణ":632,"త":633,"థ":634,"ద":635,"ధ":636,"న":637,"ప":638,"ఫ":639,"బ":640,"భ":641,"మ":642,"య":643,"ర":644,"ల":645,"ళ":646,"వ":647,"శ":648,"ష":649,"స":650,"హ":651,"ా":652,"ి":653,"ీ":654,"ు":655,"ూ":656,"ృ":657,"ె":658,"ే":659,"ై":660,"ొ":661,"ో":662,"ౌ":663,"్":664,"ṅ":665,"ṇ":666,"ṣ":667,"ṭ":668,"Ἰ":669,"‌":670,"‍":671,"–":672,"—":673,"‘":674,"’":675,"“":676,"”":677,"†":678,"′":679,"₹":680,"▁":681,"▁t":682,"an":683,"he":684,"in":685,"▁the":686,"on":687,"er":688,"re":689,"▁a":690,"▁o":691,"st":692,"en":693,"al":694,"di":695,"at":696,"▁I":697,"and":698,"▁c":699,"ed":700,"it":701,"ar":702,"▁In":703,"▁of":704,"▁w":705,"▁in":706,"▁s":707,"▁and":708,"or":709,"ion":710,"▁b":711,"▁p":712,"▁Indi":713,"es":714,"ic":715,"▁m":716,"▁f":717,"▁क":718,"is":719,"ing":720,"as":721,"ent":722,"▁l":723,"om":724,"▁India":725,"==":726,"▁e":727,"ou":728,"▁to":729,"▁1":730,"ার":731,"▁स":732,"▁T":733,"ly":734,"▁h":735,"▁d":736,"ur":737,"ec":738,"্র":739,"▁re":740,"য়":741,"▁n":742,"▁g":743,"▁म":744,"▁A":745,"il":746,"th":747,"▁ह":748,"ver":749,"▁==":750,"ार":751,"▁স":752,"▁C":753,"ol":754,"ul":755,"▁The":756,"ri":757,"▁प":758,"্য":759,"्र":760,"ra":761,"▁B":762,"▁প":763,"ation":764,"▁S":765,"▁ব":766,"am":767,"▁के":768,"▁2":769,"ro":770,"ve":771,"le":772,"ের":773,"▁भ":774,"ें":775,"s,":776,"ce":777,"ut":778,"▁19":779,"▁is":780,"ist":781,"▁(":782,"▁Indian":783,"▁by":784,"et":785,"ast":786,"ad":787,"im":788,"▁में":789,"ig":790,"ge":791,"00":792,"▁th":793,"us":794,"▁===":795,"▁ভ":796,"▁P":797,"ow":798,"id":799,"▁है":800,"s.":801,"un":802,"▁M":803,"▁ক":804,"ith":805,"▁for":806,"ir":807,"'s":808,"uc":809,"্ত":810,"्य":811,"▁r":812,"▁be":813,"ment":814,"▁ప":815,"్ర":816,"ate":817,"▁con":818,"▁with":819,"ies":820,"op":821,"▁was":822,"tion":823,"▁अ":824,"em":825,"▁as":826,"ter":827,"ারত":828,"ান":829,"▁wh":830,"▁st":831,"▁mo":832,"▁E":833,"ारत":834,"▁ভারত":835,"▁भारत":836,"res":837,"ార":838,"▁অ":839,"ong":840,"rom":841,"▁ज":842,"▁न":843,"▁ब":844,"ain":845,"र्":846,"▁व":847,"▁এ":848,"▁it":849,"িক":850,"ical":851,"▁ex":852,"est":853,"র্":854,"▁di":855,"లు":856,"her":857,"▁H":858,"▁D":859,"▁G":860,"▁an":861,"▁द":862,"▁হ":863,"ang":864,"या":865,"ों":866,"ac":867,"der":868,"▁ম":869,"se":870,"▁N":871,"▁or":872,"ab":873,"िक":874,"ial":875,"ich":876,"▁from":877,"▁has":878,"um":879,"gh":880,"▁औ":881,"▁on":882,"ay":883,"▁र":884,"ill":885,"▁और":886,"িত":887,"ity":888,"ort":889,"▁প্র":890,"ld":891,"up":892,"▁দ":893,"▁ar":894,"▁20":895,"▁which":896,"ud":897,"्त":898,"▁ও":899,"▁స":900,"▁un":901,"ान":902,"ive":903,"ub":904,"▁আ":905,"con":906,"ure":907,"▁are":908,"▁par":909,"▁క":910,"ak":911,"oc":912,"rit":913,"ult":914,"▁की":915,"াল":916,"li":917,"▁त":918,"▁प्र":919,"▁ন":920,"ant":921,"▁inc":922,"over":923,"లో":924,"▁India's":925,"ere":926,"▁its":927,"a,":928,"ot":929,"du":930,"▁का":931,"▁al":932,"▁com":933,"el":934,"oun":935,"্ষ":936,"iv":937,"্ব":938,"▁వ":939,"ary":940,"▁বি":941,"end":942,"్య":943,"▁v":944,"▁উ":945,"▁were":946,"ীয়":947,"ated":948,"▁మ":949,"▁से":950,"▁है।":951,"▁W":952,"▁భ":953,"রা":954,"ear":955,"ाज":956,"ন্":957,"ch":958,"▁cent":959,"▁de":960,"টি":961,"▁U":962,"od":963,"arge":964,"si":965,"▁co":966,"ism":967,"y,":968,"న్":969,"ans":970,"es,":971,"ीय":972,"overn":973,"mp":974,"िया":975,"ক্ষ":976,"ది":977,"▁ग":978,"▁wor":979,"ough":980,"our":981,"og":982,"▁R":983,"▁জ":984,"ect":985,"▁part":986,"fter":987,"దే":988,"▁आ":989,"▁ch":990,"▁int":991,"▁sp":992,"▁pro":993,"▁cont":994,"ిం":995,"outh":996,"▁Hin":997,"ag":998,"ous":999,"conom":1000,"దేశ":1001,"i,":1002,"ాల":1003,"▁at":1004,"age":1005,"ता":1006,"था":1007,"overnment":1008,"তি":1009,"▁उ":1010,"▁ర":1011,"ally":1012,"ame":1013,"av":1014,"्ष":1015,"ిక":1016,"ct":1017,"if":1018,"ర్":1019,"స్":1020,"low":1021,"os":1022,"ाल":1023,"ance":1024,"▁bec":1025,"uring":1026,"▁ल":1027,"ish":1028,"ass":1029,"ore":1030,"ना":1031,"▁201":1032,"াম":1033,"▁J":1034,"▁শ":1035,"▁Ch":1036,"ution":1037,"▁ప్ర":1038,"ారత":1039,"aj":1040,"ber":1041,"েশ":1042,"▁K":1043,"▁per":1044,"▁mar":1045,"▁econom":1046,"▁form":1047,"▁into":1048,"ap":1049,"▁India,":1050,"ress":1051,"▁इ":1052,"▁श":1053,"▁पर":1054,"▁భారత":1055,"any":1056,"ern":1057,"▁reg":1058,"illion":1059,"▁అ":1060,"▁pl":1061,"ায়":1062,"stit":1063,"▁वि":1064,"mer":1065,"ry":1066,"angu":1067,"న్న":1068,"ాలు":1069,"▁k":1070,"▁ad":1071,"▁cl":1072,"▁se":1073,"▁sub":1074,"▁le":1075,"▁large":1076,"▁rel":1077,"▁centur":1078,"স্":1079,"▁को":1080,"▁सं":1081,"ire":1082,"ts":1083,"কে":1084,"ষ্":1085,"inist":1086,"me":1087,"▁y":1088,"▁pop":1089,"▁el":1090,"য়ে":1091,"রে":1092,"्व":1093,"▁V":1094,"▁ए":1095,"ence":1096,"▁हैं":1097,"cc":1098,"e,":1099,"▁F":1100,"▁গ":1101,"ener":1102,"▁langu":1103,"▁government":1104,"াত":1105,"port":1106,"াব":1107,"▁Hindu":1108,"lud":1109,"qu":1110,"▁O":1111,"reas":1112,"▁pri":1113,"▁dec":1114,"▁art":1115,"▁world":1116,"▁region":1117,"▁popul":1118,"न्":1119,"▁য":1120,"irst":1121,"ok":1122,"ates":1123,"▁Asi":1124,"),":1125,"duc":1126,"ew":1127,"त्र":1128,"▁Ind":1129,"ome":1130,"ave":1131,"pp":1132,"ther":1133,"লি":1134,"▁tra":1135,"reat":1136,"▁ag":1137,"▁sy":1138,"▁first":1139,"▁comp":1140,"▁year":1141,"so":1142,"ord":1143,"dition":1144,"▁ने":1145,"dern":1146,"िय":1147,"గా":1148,"all":1149,"▁कर":1150,"▁ভারতের":1151,"ff":1152,"oth":1153,"ved":1154,"▁3":1155,"▁১":1156,"▁end":1157,"red":1158,"▁sh":1159,"▁India.":1160,"▁सा":1161,"ection":1162,"uch":1163,"▁includ":1164,"ित":1165,"বি":1166,"▁5":1167,"▁রা":1168,"▁200":1169,"ड़":1170,"ने":1171,"▁ত":1172,"row":1173,"igh":1174,"ign":1175,"1,":1176,"▁\"":1177,"▁L":1178,"ది.":1179,"stitution":1180,"gan":1181,"we":1182,"▁य":1183,"▁ఉ":1184,"▁over":1185,"stem":1186,"▁during":1187,"▁res":1188,"used":1189,"mpire":1190,"▁became":1191,"▁system":1192,"্চ":1193,"▁7":1194,"hi":1195,"har":1196,"क्ष":1197,"ति":1198,"ছে":1199,"▁च":1200,"ted":1201,"ని":1202,"▁ri":1203,"▁but":1204,"▁had":1205,"▁have":1206,"ural":1207,"vers":1208,"▁সং":1209,"▁পর":1210,"ational":1211,"▁been":1212,"estern":1213,"▁राज":1214,"▁also":1215,"ন্দ":1216,"▁Un":1217,"ajor":1218,"inister":1219,"ास":1220,"ेश":1221,"▁జ":1222,"র্ব":1223,"ाद":1224,"াহ":1225,"▁4":1226,"▁195":1227,"ces":1228,"ral":1229,"y.":1230,"ాయ":1231,"ine":1232,"▁196":1233,"dh":1234,"ric":1235,"्ट":1236,"▁inf":1237,"▁sup":1238,"▁me":1239,"ower":1240,"▁cons":1241,"▁more":1242,"▁relig":1243,"క్":1244,"ాత":1245,"▁এক":1246,"िस":1247,"▁South":1248,"ide":1249,"ongress":1250,"wo":1251,"ाष":1252,"▁after":1253,"atic":1254,"▁such":1255,"▁pe":1256,"▁pol":1257,"es.":1258,"▁million":1259,"▁minister":1260,"▁lat":1261,"▁num":1262,"▁gener":1263,"▁that":1264,"▁most":1265,"▁modern":1266,"▁increas":1267,"ound":1268,"ষ্ট":1269,"গু":1270,"াস":1271,"▁থ":1272,"▁202":1273,"িল":1274,"imal":1275,"a.":1276,"sh":1277,"tin":1278,"▁చ":1279,"▁সম":1280,"▁भारतीय":1281,"దేశం":1282,"▁इस":1283,"mong":1284,"pt":1285,"ాన":1286,"▁he":1287,"▁im":1288,"▁two":1289,"▁ca":1290,"orth":1291,"▁both":1292,"▁long":1293,"▁सम":1294,"▁199":1295,"▁rul":1296,"▁dis":1297,"▁prime":1298,"▁tradition":1299,"versity":1300,"lic":1301,"కు":1302,"ন্ত":1303,"▁ই":1304,"istor":1305,"CE":1306,"o-":1307,"ust":1308,"লে":1309,"్ట":1310,"ren":1311,"ens":1312,"ition":1313,"▁Congress":1314,"▁করে":1315,"ban":1316,"ph":1317,"ধ্য":1318,"▁१":1319,"▁cast":1320,"▁sc":1321,"▁ser":1322,"▁soc":1323,"▁major":1324,"urban":1325,"▁BCE":1326,"istan":1327,"etwe":1328,"▁Empire":1329,"▁under":1330,"ulture":1331,"▁class":1332,"▁years":1333,"etween":1334,"ik":1335,"ঙ্":1336,"দ্":1337,"ను":1338,"్వ":1339,"▁সাল":1340,"▁ভারতীয়":1341,"▁हैं।":1342,"ep":1343,"াদ":1344,"▁An":1345,"▁Con":1346,"▁Brit":1347,"000":1348,"ian":1349,"ose":1350,"ince":1351,"olog":1352,"▁तथा":1353,"▁एक":1354,"▁British":1355,"rough":1356,"ures":1357,"ंग":1358,"▁urban":1359,"hed":1360,"▁their":1361,"ond":1362,"▁coun":1363,"▁off":1364,"isation":1365,"▁not":1366,"▁grow":1367,"▁Bud":1368,"ament":1369,"vel":1370,"lear":1371,"▁this":1372,"uclear":1373,"▁अन":1374,"▁exp":1375,"▁election":1376,"▁language":1377,"▁population":1378,"▁number":1379,"▁Buddh":1380,"াপ":1381,"ৃত":1382,"ండ":1383,"ిన":1384,"▁ఇ":1385,"▁हु":1386,"▁भी":1387,"▁जा":1388,"▁হয়":1389,"0,":1390,"6%":1391,"ef":1392,"কার":1393,"ీయ":1394,"▁২":1395,"eng":1396,"out":1397,"▁নি":1398,"lo":1399,"contin":1400,"ell":1401,"ages":1402,"continent":1403,"e.":1404,"ক্ত":1405,"ড়":1406,"েকে":1407,"▁ter":1408,"ree":1409,"enc":1410,"▁south":1411,"▁between":1412,"▁many":1413,"▁fol":1414,"▁land":1415,"▁ear":1416,"▁dance":1417,"▁rec":1418,"▁nort":1419,"▁north":1420,"▁हो":1421,"rib":1422,"▁began":1423,"ically":1424,"ially":1425,"akistan":1426,"ism,":1427,"lowing":1428,"ধান":1429,"▁অন":1430,"न्द":1431,"ঙ্গ":1432,"তা":1433,"০০":1434,"▁194":1435,"ublic":1436,"▁১৯":1437,"▁থেকে":1438,"mon":1439,"ni":1440,"ting":1441,"vi":1442,"্প":1443,"తి":1444,"▁উপ":1445,"▁জন":1446,"ించ":1447,"স্থ":1448,"ci":1449,"lu":1450,"से":1451,"हा":1452,"বং":1453,"িয়":1454,"▁j":1455,"▁ra":1456,"▁up":1457,"▁tim":1458,"on-":1459,"▁app":1460,"▁It":1461,"ite":1462,"ited":1463,"▁fore":1464,"▁east":1465,"▁18":1466,"▁rep":1467,"ilit":1468,"ade":1469,"▁Pakistan":1470,"्या":1471,"ies,":1472,"hern":1473,"anges":1474,"▁economic":1475,"merg":1476,"▁world's":1477,"▁later":1478,"▁caste":1479,"▁northern":1480,"▁नि":1481,"र्व":1482,"▁এবং":1483,"▁দেশ":1484,"స్త":1485,"গুলি":1486,"7,":1487,"gin":1488,"कार":1489,"াধ":1490,"▁চ":1491,"ard":1492,"र्म":1493,"▁মধ্য":1494,"▁বিশ":1495,"দ্ধ":1496,"रा":1497,"▁র":1498,"▁ఆ":1499,"iter":1500,"▁CE":1501,"ular":1502,"ations":1503,"aw":1504,"ace":1505,"ket":1506,"per":1507,"ugh":1508,"िल":1509,"স্ত":1510,"ంత":1511,"ద్":1512,"▁ফ":1513,"▁there":1514,"▁ab":1515,"▁western":1516,"▁sec":1517,"▁since":1518,"▁power":1519,"omin":1520,"▁hum":1521,"▁Al":1522,"▁After":1523,"▁Com":1524,"raph":1525,"▁By":1526,"▁বা":1527,"▁rate":1528,"▁ext":1529,"▁আই":1530,"▁spec":1531,"▁subcontinent":1532,"▁influ":1533,"▁peop":1534,"▁increased":1535,"▁classical":1536,"▁count":1537,"velop":1538,"स्":1539,"এস":1540,"ঞ্চ":1541,"ত্ত":1542,"ীন":1543,"ల్":1544,"▁Th":1545,"S$":1546,"ులు":1547,"▁খ":1548,"orm":1549,"ise":1550,"▁Mo":1551,"▁ভারতে":1552,"▁वर्":1553,"▁এই":1554,"▁రా":1555,"য়েছে":1556,"lim":1557,"ss":1558,"ते":1559,"ाम":1560,"ంగ":1561,"రి":1562,"▁త":1563,"ative":1564,"▁किया":1565,"ised":1566,"as,":1567,"amil":1568,"-l":1569,"ex":1570,"ever":1571,"hm":1572,"iod":1573,"pl":1574,"rol":1575,"sl":1576,"ty":1577,"vent":1578,"ंत्र":1579,"धिक":1580,"री":1581,"▁6":1582,"hem":1583,"ered":1584,"▁among":1585,"▁occ":1586,"▁cour":1587,"ari":1588,"▁war":1589,"ions":1590,"esp":1591,"ice":1592,"ics":1593,"▁mat":1594,"▁mus":1595,"▁mid":1596,"▁milit":1597,"▁lif":1598,"▁liter":1599,"▁emerg":1600,"▁histor":1601,"ech":1602,"▁new":1603,"▁nuclear":1604,"▁198":1605,"▁than":1606,"own":1607,"▁Mugh":1608,"ately":1609,"ies.":1610,"tern":1611,"▁state":1612,"▁হি":1613,"abl":1614,"able":1615,"▁parli":1616,"▁develop":1617,"ected":1618,"▁Chin":1619,"▁period":1620,"▁largest":1621,"▁রাজ":1622,"▁river":1623,"▁general":1624,"cient":1625,"▁people":1626,"এসবি":1627,"▁Mughal":1628,"▁parliament":1629,"0.":1630,"ीन":1631,"ংশ":1632,"ి.":1633,"▁Ma":1634,"ple":1635,"ती":1636,"ুর":1637,"రు":1638,"▁న":1639,"▁हि":1640,"্যা":1641,"▁Pl":1642,"▁तक":1643,"▁US$":1644,"▁2011":1645,"▁একটি":1646,"ষ্ট্র":1647,"▁বিশ্ব":1648,"5,":1649,"5.":1650,"krit":1651,"এন":1652,"লা":1653,"▁ध":1654,"▁ద":1655,"▁బ":1656,"ess":1657,"▁12":1658,"urop":1659,"ild":1660,"▁St":1661,"▁Sans":1662,"▁राज्य":1663,"▁সালে":1664,"▁Sanskrit":1665,"-d":1666,"jab":1667,"o,":1668,"ron":1669,"ten":1670,"ंध":1671,"के":1672,"िण":1673,"ంట":1674,"hen":1675,"▁them":1676,"eral":1677,"enni":1678,"dic":1679,"▁set":1680,"orld":1681,"▁bas":1682,"▁est":1683,"▁ref":1684,"▁non-":1685,"▁Beng":1686,"ation,":1687,"vement":1688,"▁though":1689,"▁through":1690,"▁Pun":1691,"▁constitution":1692,"▁East":1693,"illenni":1694,"ultan":1695,"▁World":1696,"ograph":1697,"ింది.":1698,"▁lead":1699,"▁including":1700,"▁caused":1701,"▁social":1702,"▁হয়।":1703,"▁military":1704,"▁Bengal":1705,"▁Punjab":1706,"illennium":1707,"ृत":1708,"ము":1709,"▁9":1710,"ার্":1711,"▁स्":1712,"▁197":1713,"▁వి":1714,"t,":1715,"धान":1716,"িন":1717,"ంలో":1718,"ుత":1719,"ైన":1720,"ers":1721,"▁সর":1722,"▁देश":1723,"▁భారతదేశం":1724,"▁साथ":1725,"ाषा":1726,"▁আইএসবি":1727,"▁আইএসবিএন":1728,").":1729,"4%":1730,"eat":1731,"ood":1732,"का":1733,"स्त":1734,"ूप":1735,"▁గ":1736,"uslim":1737,"ird":1738,"▁Del":1739,"ack":1740,"▁సం":1741,"▁उत":1742,"ন্দ্র":1743,"▁१९":1744,"▁Comp":1745,"au":1746,"ared":1747,"ied":1748,"ta":1749,"ोग":1750,"মা":1751,"ూడ":1752,"▁8":1753,"▁था":1754,"▁tr":1755,"ange":1756,"heast":1757,"rew":1758,"read":1759,"▁other":1760,"▁cr":1761,"▁some":1762,"▁sign":1763,"▁billion":1764,"▁pre":1765,"▁main":1766,"▁millennium":1767,"▁far":1768,"ing,":1769,"entral":1770,"▁led":1771,"▁emp":1772,"▁सर":1773,"ly,":1774,"▁gr":1775,"▁gra":1776,"▁Sik":1777,"roc":1778,"owever":1779,"ident":1780,"▁rural":1781,"▁who":1782,"▁sty":1783,"▁जन":1784,"▁dire":1785,"▁Himal":1786,"▁one":1787,"ritor":1788,"▁all":1789,"ivil":1790,"▁def":1791,"argest":1792,"▁Asia":1793,"duced":1794,"▁Indus":1795,"▁Indo-":1796,"ording":1797,"क्षिण":1798,"▁পরি":1799,"▁religi":1800,"▁polit":1801,"▁served":1802,"▁forest":1803,"-largest":1804,"▁mathem":1805,"▁music":1806,"▁life":1807,"owever,":1808,"▁Himalay":1809,"1.":1810,"वा":1811,"हु":1812,"ीं":1813,"প্র":1814,"াক":1815,"াগ":1816,"▁ধ":1817,"▁col":1818,"ork":1819,"▁पू":1820,"▁अप":1821,"▁दक्षिण":1822,"्तर":1823,"्षे":1824,"ాయి.":1825,"ঞ্চল":1826,"▁सरकार":1827,"ओं":1828,"भा":1829,"র্ত":1830,"াচ":1831,"ুক্ত":1832,"ిత":1833,"▁ఎ":1834,"▁శ":1835,"▁क्षे":1836,"्रे":1837,"▁Sh":1838,"▁En":1839,"▁অব":1840,"▁जिस":1841,"▁প্রধান":1842,"▁गया":1843,"▁क्षेत्र":1844,"ru":1845,"द्":1846,"ली":1847,"মান":1848,"ির":1849,"োগ":1850,"০-":1851,"১৯":1852,"ంగా":1853,"ంది.":1854,"ధిక":1855,"anc":1856,"anu":1857,"▁বৃ":1858,"▁बाद":1859,"▁साम":1860,"▁यह":1861,"క్ష":1862,"▁Plate":1863,"19":1864,"2,":1865,"cri":1866,"dle":1867,"eh":1868,"ean":1869,"gl":1870,"ked":1871,"mit":1872,"odi":1873,"put":1874,"til":1875,"vid":1876,"क्त":1877,"ढ़":1878,"िम":1879,"দের":1880,"–2":1881,"▁२":1882,"▁en":1883,"▁us":1884,"▁used":1885,"▁tech":1886,"▁acc":1887,"▁out":1888,"▁Isl":1889,"▁cit":1890,"▁culture":1891,"arn":1892,"▁we":1893,"▁wom":1894,"▁wide":1895,"▁sur":1896,"▁made":1897,"▁found":1898,"▁loc":1899,"omet":1900,"▁high":1901,"্রিক":1902,"▁no":1903,"▁great":1904,"very":1905,"▁Central":1906,"▁भाषा":1907,"▁third":1908,"▁Muslim":1909,"ments":1910,"▁ass":1911,"ారు":1912,"র্থ":1913,"▁Gand":1914,"dust":1915,"▁central":1916,"▁coal":1917,"▁coast":1918,"▁cook":1919,"▁contrib":1920,"▁control":1921,"▁Jain":1922,"▁economy":1923,"▁plain":1924,"▁विश":1925,"▁century,":1926,"▁agric":1927,"▁include":1928,"▁ఉన్న":1929,"ন্ত্র":1930,"▁growth":1931,"▁territor":1932,"▁following":1933,"▁human":1934,"▁country":1935,"▁court":1936,"▁emerged":1937,"▁हिन्द":1938,"ultanate":1939,"▁Company":1940,"▁trans":1941,"▁Sikh":1942,"▁religious":1943,"▁political":1944,"▁women":1945,"3.":1946,"tor":1947,"ंद":1948,"नी":1949,"बसे":1950,"ां":1951,"ुख":1952,"्च":1953,"গ্র":1954,"ীর":1955,"▁सबसे":1956,"▁(স":1957,"াহা":1958,"▁অন্য":1959,"▁মধ্যে":1960,"▁সরকার":1961,"led":1962,"টার":1963,"তে":1964,"সে":1965,"ূর্ব":1966,"టి":1967,"ins":1968,"▁कार":1969,"▁17":1970,"্য)":1971,"emoc":1972,"ార్":1973,"▁बहु":1974,"াবে":1975,"▁রাষ্ট্র":1976,"%.":1977,"6,":1978,"nolog":1979,"ost":1980,"ven":1981,"ving":1982,"कर":1983,"ले":1984,"তম":1985,"মি":1986,"పు":1987,"వి":1988,"్చ":1989,"▁थ":1990,"rigin":1991,"▁Europ":1992,"ach":1993,"▁సా":1994,"ultural":1995,"▁प्रा":1996,"ight":1997,"्ट्र":1998,"ाष्ट्र":1999,"▁Delhi":2000,"-s":2001,"0%":2002,"JP":2003,"af":2004,"are":2005,"ction":2006,"iz":2007,"main":2008,"oin":2009,"ually":2010,"vol":2011,"west":2012,"work":2013,"ya":2014,"ত্র":2015,"সং":2016,"্থ":2017,"▁|":2018,"▁ent":2019,"▁her":2020,"▁esp":2021,"ank":2022,"▁they":2023,"reated":2024,"▁origin":2025,"als":2026,"alle":2027,"▁Its":2028,"▁cap":2029,"▁cens":2030,"arat":2031,"▁indust":2032,"▁bi":2033,"▁bir":2034,"▁pain":2035,"icial":2036,"▁fed":2037,"▁fig":2038,"▁feat":2039,"▁li":2040,"▁last":2041,"▁dra":2042,"ecially":2043,"▁remain":2044,"▁ne":2045,"▁grew":2046,"verse":2047,"▁সঙ্গ":2048,"ulpt":2049,"▁There":2050,"▁पा":2051,"istic":2052,"ades":2053,"und":2054,"ান্ত":2055,"▁stat":2056,"▁movement":2057,"▁export":2058,"▁diff":2059,"▁diversity":2060,"▁Ganges":2061,"▁animal":2062,"▁ancient":2063,"▁হল":2064,"▁Neh":2065,"िका":2066,"ity,":2067,"▁arm":2068,"▁arch":2069,"▁areas":2070,"ives":2071,"ाज्य":2072,"▁dev":2073,"▁party":2074,"▁Hindi":2075,"ific":2076,"▁marri":2077,"▁leg":2078,"▁century":2079,"▁righ":2080,"▁United":2081,"▁support":2082,"▁sculpt":2083,"▁majority":2084,"▁Constitution":2085,"ंग्रे":2086,"▁early":2087,"▁second":2088,"▁occup":2089,"▁literac":2090,"▁parliamentary":2091,"▁direct":2092,"▁Engl":2093,"▁local":2094,"▁Gandhi":2095,"াহায":2096,"▁especially":2097,"▁painting":2098,"▁Nehru":2099,"▁English":2100,")।":2101,"3,":2102,"iet":2103,"की":2104,"बंध":2105,"मा":2106,"ला":2107,"िए":2108,"মে":2109,"ం,":2110,"ష్ట":2111,"▁Y":2112,"▁फ":2113,"▁హ":2114,"▁15":2115,"্রি":2116,"▁স্ব":2117,"▁है,":2118,"▁अधिक":2119,"▁दो":2120,"▁মহ":2121,"▁প্রতি":2122,"▁তার":2123,"▁1947,":2124,"द्ध":2125,"▁(সাহায":2126,"▁(সাহায্য)":2127,"प्त":2128,"ुर":2129,"्प":2130,"বে":2131,"াই":2132,"াজ":2133,"ুন":2134,"ar,":2135,"▁1,":2136,"▁Act":2137,"▁Se":2138,"▁বৈ":2139,"▁কে":2140,"र्थ":2141,"▁Government":2142,"▁కూడ":2143,"▁নাম":2144,"ived":2145,"▁शास":2146,"▁वर्ष":2147,"▁धर्म":2148,"4.":2149,"6.":2150,"bal":2151,"देश":2152,"रे":2153,"सा":2154,"िन":2155,"তিক":2156,"দি":2157,"ভি":2158,"াষ":2159,"ূল":2160,"త్":2161,"▁–":2162,"▁దేశ":2163,"er,":2164,"ারণ":2165,"▁Tamil":2166,"্যার":2167,"ra,":2168,"▁Per":2169,"▁रूप":2170,"స్థ":2171,"▁ప్రా":2172,"▁स्थ":2173,"9.":2174,"DP":2175,"cent":2176,"dom":2177,"dam":2178,"day":2179,"ft":2180,"fore":2181,"hat":2182,"hi,":2183,"i)":2184,"ix":2185,"min":2186,"minist":2187,"ned":2188,"ped":2189,"pro":2190,"s;":2191,"ual":2192,"wn":2193,"yan":2194,"दी":2195,"చ్చ":2196,"ట్ట":2197,"▁घ":2198,"▁ఈ":2199,"▁ed":2200,"▁దేశం":2201,"▁roc":2202,"ances":2203,"ers,":2204,"▁air":2205,"str":2206,"enins":2207,"alth":2208,"dian":2209,"ati":2210,"ating":2211,"ands":2212,"▁car":2213,"▁created":2214,"ed,":2215,"▁often":2216,"▁won":2217,"▁well":2218,"▁ind":2219,"▁inter":2220,"▁sm":2221,"▁sou":2222,"▁sultanate":2223,"▁pres":2224,"▁prom":2225,"▁penins":2226,"ished":2227,"ings":2228,"ingdom":2229,"▁low":2230,"▁lower":2231,"oup":2232,"ould":2233,"▁1.":2234,"urther":2235,"ecut":2236,"▁national":2237,"▁Acc":2238,"▁Among":2239,"▁These":2240,"ract":2241,"▁Bi":2242,"▁BJP":2243,"▁ব্য":2244,"amm":2245,"leg":2246,"▁Indians":2247,"etic":2248,"▁কর":2249,"▁rates":2250,"ember":2251,"▁whose":2252,"▁states":2253,"▁जो":2254,"ains":2255,"▁execut":2256,"▁During":2257,"▁হয়েছে":2258,"sequ":2259,"▁National":2260,"▁राष्ट्र":2261,"িতে":2262,"▁union":2263,"ants":2264,"▁commer":2265,"▁common":2266,"▁Western":2267,"ন্ন":2268,"ody":2269,"ক্ষা":2270,"▁contin":2271,"osed":2272,"▁become":2273,"▁market":2274,"▁sever":2275,"▁centuries":2276,"▁languages":2277,"▁decl":2278,"▁regional":2279,"▁popular":2280,"thern":2281,"ियों":2282,"alled":2283,"▁endem":2284,"▁జాత":2285,"▁longer":2286,"▁করে।":2287,"▁Andam":2288,"▁Buddhist":2289,"outheast":2290,"▁earli":2291,"▁eastern":2292,"▁republic":2293,"▁influenc":2294,"ternal":2295,"▁China":2296,"▁রাজ্য":2297,"▁based":2298,"▁styl":2299,"▁mathematic":2300,"▁technolog":2301,"▁विश्व":2302,"▁federal":2303,"ificant":2304,"▁Persi":2305,"ministr":2306,"▁educ":2307,"▁southern":2308,"▁According":2309,"sequent":2310,"▁Andaman":2311,"ai":2312,"ford":2313,"xford":2314,"जा":2315,"ছিল":2316,"নের":2317,"ంచ":2318,"యా":2319,"్ల":2320,"▁ఒ":2321,"▁০-":2322,"▁नाम":2323,"▁భారతీయ":2324,"▁২০০":2325,"▁రాజ":2326,"মাণ":2327,"▁पूर्व":2328,"▁কেন্দ্র":2329,"म्":2330,"না":2331,"যোগ":2332,"తర":2333,"లి":2334,"▁ড":2335,"▁ল":2336,"ata":2337,"rac":2338,"▁ভাষ":2339,"▁কো":2340,"▁অঞ্চল":2341,"▁बड़":2342,"▁Histor":2343,"▁భా":2344,"ক্ষি":2345,"▁రై":2346,"▁चु":2347,"▁1950":2348,"লেখ":2349,"▁अनु":2350,"▁हुआ":2351,"▁हुई":2352,"8.":2353,"ook":2354,"ue":2355,"कि":2356,"में":2357,"मान":2358,"वि":2359,"सार":2360,"ाग":2361,"ैन":2362,"ोड़":2363,"००":2364,"খ্যা":2365,"গত":2366,"চিত":2367,"নি":2368,"সি":2369,"ৃতি":2370,"োট":2371,"ాబ":2372,"▁ট":2373,"▁ని":2374,"inc":2375,"ature":2376,"iss":2377,"ising":2378,"▁स्व":2379,"▁সাম":2380,"▁সর্ব":2381,"▁স্থ":2382,"▁Bra":2383,"am,":2384,"▁193":2385,"▁ক্ষ":2386,"్రీ":2387,"র্ণ":2388,"▁दे":2389,"▁New":2390,"▁మొ":2391,"▁Raj":2392,"▁জাত":2393,"ষ্ঠ":2394,"▁Oxford":2395,"ছে।":2396,"epend":2397,"▁जाता":2398,"ত্তর":2399,"ారు.":2400,"ష్ట్ర":2401,"-g":2402,"-m":2403,"1%":2404,"4,":2405,"ah":2406,"ax":2407,"adi":2408,"ble":2409,"bian":2410,"can":2411,"de":2412,"ded":2413,"eak":2414,"eograph":2415,"gen":2416,"ians":2417,"iversity":2418,"ks":2419,"mb":2420,"mas":2421,"mary":2422,"nown":2423,"ool":2424,"ption":2425,"pical":2426,"tle":2427,"ture":2428,"val":2429,"wan":2430,"ध्य":2431,"ভূ":2432,"ল্":2433,"াট":2434,"াড়":2435,"ীপ":2436,"েল":2437,"্ড":2438,"ంద":2439,"▁z":2440,"▁tem":2441,"▁trib":2442,"▁tex":2443,"hes":2444,"eration":2445,"redi":2446,"▁aff":2447,"▁ob":2448,"▁old":2449,"ale":2450,"als,":2451,"ather":2452,"▁cur":2453,"▁civil":2454,"ars":2455,"▁win":2456,"▁west":2457,"▁indi":2458,"▁sing":2459,"▁sch":2460,"ors":2461,"ions,":2462,"▁bl":2463,"▁men":2464,"▁mak":2465,"▁member":2466,"▁fl":2467,"▁fast":2468,"▁fac":2469,"▁five":2470,"▁four":2471,"▁famil":2472,"▁further":2473,"▁कु":2474,"isl":2475,"ashm":2476,"▁eth":2477,"▁empire":2478,"▁every":2479,"ouse":2480,"▁10":2481,"▁सि":2482,"▁however,":2483,"▁domin":2484,"▁ren":2485,"▁now":2486,"▁gen":2487,"▁gar":2488,"▁glo":2489,"▁मान":2490,"▁Af":2491,"▁Ara":2492,"ility":2493,"though":2494,"ारी":2495,"▁সা":2496,"▁Bhar":2497,"▁Southeast":2498,"▁2.":2499,"ross":2500,"▁भू":2501,"ists":2502,"▁three":2503,"▁rise":2504,"▁పే":2505,"▁conduc":2506,"▁str":2507,"▁এর":2508,"র্ম":2509,"▁dist":2510,"▁GDP":2511,"▁ann":2512,"▁दिया":2513,"angered":2514,"▁around":2515,"▁until":2516,"ively":2517,"lif":2518,"lief":2519,"▁নে":2520,"anted":2521,"▁along":2522,"▁vast":2523,"▁vill":2524,"▁vari":2525,"▁worn":2526,"▁char":2527,"▁spread":2528,"▁prot":2529,"ికి":2530,"oss":2531,"▁Janu":2532,"▁শতা":2533,"▁Kashm":2534,"▁formed":2535,"▁kingdom":2536,"▁administr":2537,"▁subsequent":2538,"▁left":2539,"স্ক":2540,"▁art,":2541,"▁comple":2542,"▁endangered":2543,"▁resp":2544,"▁system,":2545,"▁Union":2546,"▁University":2547,"▁consid":2548,"▁religions":2549,"▁polic":2550,"▁increasing":2551,"▁held":2552,"▁import":2553,"▁caus":2554,"▁rule":2555,"▁traditional":2556,"▁official":2557,"▁election,":2558,"loy":2559,"▁term":2560,"▁record":2561,"▁time":2562,"▁times":2563,"গুলির":2564,"▁CE,":2565,"ద్ధ":2566,"▁Although":2567,"▁species,":2568,"स्क":2569,"ల్ల":2570,"▁This":2571,"▁రాష్ట్ర":2572,"▁middle":2573,"ildlif":2574,"▁Sanskrit,":2575,"▁estim":2576,"▁establ":2577,"▁leading":2578,"▁significant":2579,"▁employ":2580,"▁group":2581,"▁widely":2582,"▁surv":2583,"▁coalition":2584,"▁birth":2585,"▁liber":2586,"▁differ":2587,"▁legisl":2588,"▁sculpture":2589,"▁literacy":2590,"▁शासन":2591,"▁rock":2592,"▁independ":2593,"▁peninsular":2594,"▁executive":2595,"▁earliest":2596,"▁influenced":2597,"▁Persian":2598,"▁education":2599,"▁History":2600,"ক্ষিণ":2601,"▁Brahm":2602,"▁January":2603,"▁শতাংশ":2604,"42":2605,"ia":2606,"{{":2607,"}:":2608,"}}:":2609,"यु":2610,"रिक":2611,"ष्":2612,"हीं":2613,"ी,":2614,"ोल":2615,"দেশ":2616,"ন।":2617,"ভাবে":2618,"ীত":2619,"ুপ":2620,"েত্র":2621,"ఖ్య":2622,"నే":2623,"మైన":2624,"వా":2625,"ాక":2626,"▁ई":2627,"▁ड":2628,"▁ల":2629,"▁{{":2630,"▁Ar":2631,"▁पार":2632,"্যের":2633,"▁Pres":2634,"్రి":2635,"▁অর্থ":2636,"▁बढ़":2637,"▁হয়ে":2638,"▁দ্ব":2639,"▁స్":2640,"ाने":2641,"▁వ్య":2642,"▁उप":2643,"नाव":2644,"ামি":2645,"▁భారతదేశ":2646,"▁అధిక":2647,"ాలు,":2648,"▁যু":2649,"▁यु":2650,"াধীন":2651,"ద్ద":2652,"▁বিশ্বের":2653,"▁राज्यों":2654,"▁उत्तर":2655,"▁বৃহ":2656,"ंद्र":2657,"▁జాతీయ":2658,"▁জাতীয়":2659,"3%":2660,"8,":2661,"ँच":2662,"ंड":2663,"दान":2664,"मुख":2665,"्म":2666,"তার":2667,"ত্য":2668,"নৈ":2669,"পি":2670,"যুক্ত":2671,"িখ":2672,"ুষ":2673,"ে।":2674,"০১":2675,"డి":2676,"ణా":2677,"నా":2678,"▁छ":2679,"▁ঘ":2680,"▁లో":2681,"▁मह":2682,"्री":2683,"▁পা":2684,"▁केंद्र":2685,"▁(২":2686,"▁ক্র":2687,"▁করা":2688,"▁बन":2689,"▁रह":2690,"▁দু":2691,"oci":2692,"▁प्रमुख":2693,"▁উৎ":2694,"▁উত্তর":2695,"▁উল্":2696,"▁ము":2697,"▁Re":2698,"ింద":2699,"ర్వ":2700,"▁लिए":2701,"স্ট":2702,"▁গণ":2703,"▁समय":2704,"▁अन्य":2705,"ండి":2706,"0,000":2707,"▁রয়েছে":2708,"ులు,":2709,"নৈতিক":2710,");":2711,"01":2712,"20":2713,"7%":2714,"7.":2715,"9%":2716,"cast":2717,"p.":2718,"por":2719,"tal":2720,"ward":2721,"चीन":2722,"जी":2723,"टे":2724,"शिया":2725,"श्च":2726,"ीप":2727,"চ্চ":2728,"বাহ":2729,"রিক":2730,"া,":2731,"ুত":2732,"্দ":2733,"తో":2734,"ధ్య":2735,"పా":2736,"ుల":2737,"్‌":2738,"erv":2739,"ator":2740,"ara":2741,"ion,":2742,"ingh":2743,"ash":2744,"▁13":2745,"▁मिल":2746,"▁Ass":2747,"ारा":2748,"old":2749,"olence":2750,"▁প্যার":2751,"▁Singh":2752,"▁অধ":2753,"▁बना":2754,"▁Des":2755,"▁Gu":2756,"▁द्व":2757,"▁প্রথ":2758,"▁দক্ষিণ":2759,"aksh":2760,"iving":2761,"তিহ":2762,"▁संघ":2763,"▁हैं,":2764,"▁Asian":2765,"▁50":2766,"▁ఉంది.":2767,"cess":2768,"▁১৯৯":2769,"ত্তম":2770,"▁हिन्दी":2771,"▁সঙ্গে":2772,"▁ఒక":2773,"▁స్థ":2774,"ামিটার":2775,"▁উল্লেখ":2776,"▁প্যারামিটার":2777,"-b":2778,"-f":2779,"-r":2780,"ail":2781,"aist":2782,"ai,":2783,"cial":2784,"ched":2785,"cross":2786,"ely":2787,"eated":2788,"equ":2789,"gu":2790,"gy":2791,"han":2792,"i-":2793,"line":2794,"mace":2795,"miss":2796,"o.":2797,"otion":2798,"pic":2799,"ran":2800,"ry,":2801,"ratic":2802,"te":2803,"tic":2804,"tou":2805,"tain":2806,"ty,":2807,"ued":2808,"xim":2809,"काल":2810,"द्य":2811,"ब्":2812,"वं":2813,"हर":2814,"ी।":2815,"ोक":2816,"কাল":2817,"বস্থ":2818,"বর্ত":2819,"রণ":2820,"শ্চ":2821,"শিয়":2822,"িজ":2823,"েস":2824,"ంది":2825,"డు":2826,"భా":2827,"మా":2828,"వస్థ":2829,"ాన్":2830,"▁ख":2831,"▁ఏ":2832,"▁er":2833,"▁ve":2834,"▁qu":2835,"▁tur":2836,"▁tax":2837,"ani":2838,"here":2839,"ined":2840,"ining":2841,"ines,":2842,"ons":2843,"ones":2844,"erc":2845,"ert":2846,"ering":2847,"reme":2848,"ences":2849,"dis":2850,"atical":2851,"▁can":2852,"▁che":2853,"▁cult":2854,"▁creat":2855,"▁called":2856,"ites":2857,"itect":2858,"aries":2859,"▁writ":2860,"▁wear":2861,"▁when":2862,"▁waist":2863,"▁invol":2864,"▁so":2865,"▁sum":2866,"▁saf":2867,"orn":2868,"▁body":2869,"▁phar":2870,"▁public":2871,"▁pract":2872,"▁man":2873,"▁mon":2874,"▁mult":2875,"▁fam":2876,"▁flow":2877,"▁fund":2878,"▁lo":2879,"▁lay":2880,"▁equ":2881,"oul":2882,"▁took":2883,"▁his":2884,"▁der":2885,"▁democ":2886,"▁dances":2887,"▁ret":2888,"▁reduced":2889,"▁nat":2890,"▁near":2891,"▁As":2892,"▁====":2893,"▁Civil":2894,"ole":2895,"olid":2896,"▁Their":2897,"rial":2898,"ravi":2899,"ramas":2900,"▁Bh":2901,"amp":2902,"amic":2903,"ropical":2904,"roxim":2905,"uted":2906,"utical":2907,"▁(c":2908,"etwork":2909,"astri":2910,"igr":2911,"▁ভূ":2912,"▁Par":2913,"▁Pro":2914,"▁Many":2915,"्यव":2916,"▁below":2917,"▁before":2918,"▁within":2919,"▁अम":2920,"▁ste":2921,"▁बी":2922,"▁exc":2923,"▁exch":2924,"▁external":2925,"▁diverse":2926,"▁However,":2927,"▁De":2928,"▁Dec":2929,"▁Dravi":2930,"▁Gup":2931,"▁Gree":2932,"▁Ghat":2933,"▁दश":2934,"▁হার":2935,"acted":2936,"ders":2937,"▁মান":2938,"▁Nuclear":2939,"ably":2940,"ability":2941,"▁रहा":2942,"▁প্রাচ":2943,"▁দে":2944,"्तान":2945,"▁కా":2946,"ulting":2947,"lied":2948,"liance":2949,"dually":2950,"elf":2951,"▁మార్":2952,"▁West":2953,"ism.":2954,"ক্ষর":2955,"▁partition":2956,"▁changes":2957,"▁intro":2958,"▁sport":2959,"▁prov":2960,"▁produc":2961,"aving":2962,"ified":2963,"ाली":2964,"▁लग":2965,"▁plate":2966,"▁play":2967,"▁place":2968,"న్ని":2969,"▁known":2970,"▁relations":2971,"▁संस्क":2972,"▁Valle":2973,"▁Fore":2974,"▁languag":2975,"▁Hindust":2976,"▁Hinduism":2977,"▁Hinduism,":2978,"reasing":2979,"▁decades":2980,"▁regions":2981,"▁Asia,":2982,"▁again":2983,"▁ago.":2984,"▁composed":2985,"िये":2986,"▁करने":2987,"▁show":2988,"▁resulting":2989,"▁1950,":2990,"▁1965,":2991,"rica":2992,"▁supp":2993,"▁meat":2994,"▁consolid":2995,"▁religion":2996,"िस्तान":2997,"▁poll":2998,"▁minister.":2999,"▁সম্প":3000,"▁head":3001,"▁rule.":3002,"▁disput":3003,"▁traditionally":3004,"rent":3005,"▁scri":3006,"▁serv":3007,"▁societ":3008,"▁BCE,":3009,"▁সালের":3010,"▁Ancient":3011,"▁Constit":3012,"amental":3013,"▁Buddhism":3014,"▁south-":3015,"▁dance-d":3016,"▁অনু":3017,"▁just":3018,"▁upper":3019,"▁approxim":3020,"▁foreign":3021,"▁Pakistan.":3022,"▁about":3023,"▁secular":3024,"▁All":3025,"▁extant":3026,"▁extens":3027,"▁species":3028,"▁influence":3029,"vention":3030,"▁mid-":3031,"ternational":3032,"▁developed":3033,"▁development":3034,"▁Maur":3035,"▁1200":3036,"▁States":3037,"▁reform":3038,"▁thought":3039,"▁Punjab,":3040,"▁देशों":3041,"▁భారతదేశంలో":3042,"▁था।":3043,"▁crust":3044,"ident,":3045,"▁Indo-A":3046,"▁Himalayas":3047,"▁ఎన్న":3048,"▁Plateau":3049,"odiversity":3050,"vided":3051,"▁enacted":3052,"▁cities":3053,"▁greater":3054,"▁third-largest":3055,"▁cooked":3056,"▁cooking":3057,"▁contribution":3058,"▁agriculture":3059,"▁agricultural":3060,"▁ఉన్నాయి.":3061,"▁European":3062,"▁capit":3063,"▁census":3064,"▁industry":3065,"▁figure":3066,"▁features":3067,"▁पाक":3068,"▁architect":3069,"▁areas.":3070,"▁rights":3071,"▁directly":3072,"▁small":3073,"▁commercial":3074,"▁commonly":3075,"▁continued":3076,"▁technology":3077,"▁oldest":3078,"▁indigen":3079,"▁single":3080,"▁school":3081,"▁families":3082,"▁renew":3083,"▁global":3084,"▁Africa":3085,"▁Bharat":3086,"▁conducted":3087,"▁Kashmir":3088,"▁kingdoms":3089,"▁important":3090,"▁recorded":3091,"▁estimated":3092,"▁established":3093,"▁different":3094,"▁বৃহত্তম":3095,"▁(২০০":3096,"श्चिम":3097,"▁Guj":3098,"maceutical":3099,"touch":3100,"▁pharmaceutical":3101,"▁fundamental":3102,"▁Dravidian":3103,"▁Valley":3104,"▁dance-dramas":3105,"▁approximately":3106,"ज़":3107,"तंत्र":3108,"सी":3109,"জাত":3110,"পূর্ব":3111,"বাস":3112,"োল":3113,"্ম":3114,"టు":3115,"డ్":3116,"ధాన":3117,"రా":3118,"ిన్న":3119,"ీ,":3120,"ెండ":3121,"▁या":3122,"ann":3123,"in,":3124,"▁कई":3125,"▁मै":3126,"▁मध्य":3127,"▁সহ":3128,"▁সি":3129,"▁Cl":3130,"▁पह":3131,"▁পূর্ব":3132,"▁বছ":3133,"▁26":3134,"▁(১৯":3135,"్రమ":3136,"▁अंग्रे":3137,"ান্য":3138,"▁जी":3139,"▁नहीं":3140,"▁विक":3141,"▁స్వ":3142,"▁వచ్చ":3143,"▁বিচ":3144,"▁বিজ":3145,"▁आध":3146,"▁শাস":3147,"▁एशिया":3148,"▁সংস্ক":3149,"▁इसके":3150,"▁ইউ":3151,"▁हुए":3152,"▁होता":3153,"▁জনসং":3154,"▁निर्म":3155,"▁হিন্দ":3156,"ার্ক":3157,"▁অন্যান্য":3158,"▁कारण":3159,"▁హింద":3160,"▁चुनाव":3161,"▁अनुसार":3162,"শ্চি":3163,"▁প্রাচীন":3164,"▁మార్గ":3165,"▁पाकिस्तान":3166,"-এ":3167,"2%":3168,"2.":3169,"In":3170,"edi":3171,"form":3172,"la":3173,"टि":3174,"तिक":3175,"नों":3176,"पा":3177,"मंत्र":3178,"राज्य":3179,"ाण":3180,"िव":3181,"िन्":3182,"ওয়":3183,"ক্":3184,"দী":3185,"পর":3186,"ভাগ":3187,"ম্ব":3188,"হু":3189,"্জ":3190,"ంబ":3191,"▁$":3192,"▁ऊ":3193,"▁৫":3194,"▁सैन":3195,"▁मु":3196,"▁ही":3197,"▁हाल":3198,"olit":3199,"्राज्य":3200,"▁পশ্চি":3201,"▁25":3202,"▁(19":3203,"్రా":3204,"▁जल":3205,"▁न्या":3206,"र्ण":3207,"▁এশিয়":3208,"র্ক":3209,"▁Democ":3210,"▁కో":3211,"▁प्रति":3212,"▁మత":3213,"▁सेना":3214,"ন্ধ":3215,"ियाँ":3216,"▁लोक":3217,"▁গঠ":3218,"▁करोड़":3219,"ड़ा":3220,"क्षा":3221,"িল্প":3222,"▁చె":3223,"ానికి":3224,"▁185":3225,"াধিক":3226,"ంత్ర":3227,"▁ফলে":3228,"स्था":3229,"▁Modern":3230,"▁অবস্থ":3231,"▁गया।":3232,"▁साम्राज्य":3233,"▁भाषाओं":3234,"▁प्राचीन":3235,"▁স্বাধীন":3236,"▁కూడా":3237,"विधान":3238,"▁देख":3239,"▁भूम":3240,"▁అధికార":3241,"▁दशक":3242,"\".":3243,"%,":3244,"8%":3245,"PA":3246,"back":3247,"cit":3248,"ib":3249,"k,":3250,"ob":3251,"ंप":3252,"ख्या":3253,"त्य":3254,"योग":3255,"रब":3256,"शास":3257,"सं":3258,"सद":3259,"ক্র":3260,"ঞ্জ":3261,"ডি":3262,"বল":3263,"রো":3264,"াশ":3265,"ীল":3266,"ীতি":3267,"ুট":3268,"েট":3269,"గు":3270,"ట్":3271,"త్య":3272,"పంచ":3273,"ర్య":3274,"▁ओ":3275,"▁৪":3276,"ense":3277,"ates,":3278,"ictor":3279,"ারে":3280,"▁सक":3281,"▁report":3282,"য়ন":3283,"▁At":3284,"▁Ash":3285,"rid":3286,"▁पु":3287,"▁पश्चिम":3288,"ation}}:":3289,"road":3290,"eter":3291,"▁Pp.":3292,"▁పార":3293,"▁Ear":3294,"▁बा":3295,"र्ष":3296,"র্ষ":3297,"▁মা":3298,"▁মু":3299,"িত।":3300,"▁প্রস্ত":3301,"▁দশ":3302,"▁प्रधान":3303,"▁प्रदेश":3304,"▁మధ్య":3305,"▁War":3306,"ক্ষম":3307,"▁गण":3308,"▁गु":3309,"ogn":3310,"ective":3311,"ాల్":3312,"స్క":3313,"▁ప్రధాన":3314,"▁ప్రపంచ":3315,"▁Kal":3316,"ায়।":3317,"▁संबंध":3318,"▁संविधान":3319,"▁যদি":3320,"▁Asia.":3321,"▁नेत":3322,"াদেশ":3323,"▁দেশের":3324,"▁किया।":3325,"▁దక్ష":3326,"▁శా":3327,"১৯-":3328,"–201":3329,"ান্ত্রিক":3330,"ंग्रेस":3331,"माण":3332,"▁ప్రాంత":3333,"▁రైలు":3334,"▁स्वतंत्र":3335,"▁স্থাপ":3336,"াড়া":3337,"▁పేరు":3338,"েত্রে":3339,"▁{{cit":3340,"▁पार्ट":3341,"▁द्वारा":3342,"्यवस्था":3343,"▁बीच":3344,"▁मैदान":3345,"▁বছর":3346,"▁(১৯৯":3347,"▁चुनावों":3348,"▁{{citation}}:":3349,",000":3350,"-k":3351,"400":3352,"8–2":3353,"DA":3354,"Europ":3355,"HO":3356,"aic":3357,"after":3358,"aren":3359,"bly":3360,"bell":3361,"ced":3362,"ds":3363,"dar":3364,"ey":3365,"ez":3366,"eign":3367,"edic":3368,"eval":3369,"ger":3370,"gth":3371,"get":3372,"genc":3373,"hā":3374,"ily":3375,"ject":3376,"jo-":3377,"kh":3378,"ken":3379,"land":3380,"long":3381,"lades":3382,"mar":3383,"mend":3384,"no":3385,"nings":3386,"pen":3387,"pur":3388,"pay":3389,"pend":3390,"pass":3391,"pts":3392,"the":3393,"ts,":3394,"ty.":3395,"ues":3396,"uis":3397,"uent":3398,"us,":3399,"uous":3400,"vas":3401,"way":3402,"ya,":3403,"ई।":3404,"च्च":3405,"ण्":3406,"पू":3407,"बर":3408,"माल":3409,"ाय":3410,"ृष":3411,"ॉंग्रेस":3412,"ঁচ":3413,"জান":3414,"তান্ত্রিক":3415,"দ্র":3416,"বার":3417,"ম্প":3418,"াকে":3419,"ী।":3420,"తం":3421,"త్వ":3422,"దాయ":3423,"ప్":3424,"సి":3425,"ి,":3426,"ిస్త":3427,"ుక":3428,"ున్న":3429,"—w":3430,"▁৬":3431,"▁ir":3432,"▁ener":3433,"▁0.":3434,"▁very":3435,"▁te":3436,"▁test":3437,"▁tak":3438,"▁tropical":3439,"anch":3440,"anag":3441,"anata":3442,"ine,":3443,"▁then":3444,"▁these":3445,"onom":3446,"onial":3447,"eri":3448,"ers.":3449,"erch":3450,"re.":3451,"reg":3452,"reen":3453,"▁aver":3454,"▁age":3455,"▁across":3456,"▁opp":3457,"ened":3458,"ali":3459,"alw":3460,"ales":3461,"ality":3462,"diately":3463,"ats":3464,"and,":3465,"anding":3466,"▁c.":3467,"▁cal":3468,"▁cor":3469,"▁cle":3470,"▁crit":3471,"▁came":3472,"▁cultural":3473,"▁could":3474,"itat":3475,"ither":3476,"itud":3477,"ites,":3478,"▁went":3479,"▁would":3480,"▁wildlif":3481,"▁inst":3482,"▁init":3483,"▁institution":3484,"▁inequ":3485,"▁sil":3486,"▁sim":3487,"▁sover":3488,"▁sect":3489,"▁sav":3490,"▁slow":3491,"▁sari":3492,"▁somet":3493,"▁six":3494,"orce":3495,"orter":3496,"▁bu":3497,"▁band":3498,"▁bor":3499,"▁bri":3500,"▁back":3501,"▁broad":3502,"▁pr":3503,"▁pat":3504,"▁pet":3505,"▁port":3506,"▁pover":3507,"▁pred":3508,"▁Indira":3509,"esc":3510,"ic,":3511,"ices":3512,"icob":3513,"▁min":3514,"▁mal":3515,"▁much":3516,"▁mi)":3517,"▁mamm":3518,"▁migr":3519,"▁merch":3520,"▁fra":3521,"▁fem":3522,"▁fall":3523,"▁क्र":3524,"is.":3525,"isen":3526,"ises":3527,"ing.":3528,"▁lim":3529,"▁lik":3530,"▁law":3531,"▁loss":3532,"oming":3533,"omest":3534,"▁eff":3535,"▁eight":3536,"▁today":3537,"▁town":3538,"▁total":3539,"▁16":3540,"ারি":3541,"▁Tem":3542,"▁Treat":3543,"▁Thar":3544,"▁hy":3545,"▁hig":3546,"▁hab":3547,"▁hub":3548,"▁having":3549,"▁dri":3550,"uras":3551,"urid":3552,"urred":3553,"▁reac":3554,"▁reven":3555,"▁nation":3556,"▁name":3557,"▁nomin":3558,"▁gas":3559,"▁gain":3560,"▁god":3561,"▁gave":3562,"▁good":3563,"▁मा":3564,"▁मुख":3565,"▁Ak":3566,"ilomet":3567,"ilway":3568,"▁সাধ":3569,"uled":3570,"rig":3571,"▁Bang":3572,"▁Bay":3573,"▁পৃ":3574,"▁পর্ব":3575,"▁পুর":3576,"▁She":3577,"▁Sri":3578,"ample":3579,"▁26%":3580,"cean":3581,"ute":3582,"▁192":3583,"▁isol":3584,"ett":3585,"imes":3586,"▁threat":3587,"▁those":3588,"ush":3589,"uscri":3590,"▁Pall":3591,"iddle":3592,"une":3593,"ung":3594,"▁Mal":3595,"▁Myan":3596,"▁Middle":3597,"ucial":3598,"्यों":3599,"▁rich":3600,"▁range":3601,"▁rather":3602,"▁being":3603,"▁belief":3604,"▁belong":3605,"▁conce":3606,"operation":3607,"▁अभ":3608,"emograph":3609,"embly":3610,"▁stren":3611,"▁moist":3612,"▁Ex":3613,"▁Econom":3614,"▁Euras":3615,"resent":3616,"romise":3617,"▁ब्र":3618,"▁এছ":3619,"িকে":3620,"▁extin":3621,"▁example":3622,"▁div":3623,"▁Dal":3624,"▁Dance":3625,"▁Demograph":3626,"▁Geograph":3627,"▁anot":3628,"anged":3629,"aced":3630,"acter":3631,"▁মূল":3632,"▁North":3633,"▁Non-":3634,"▁Nicob":3635,"▁organ":3636,"abad":3637,"umb":3638,"▁unit":3639,"ured":3640,"▁కే":3641,"▁క్రీ":3642,"ott":3643,"oted":3644,"ivity":3645,"্বীপ":3646,"▁বিস্ত":3647,"▁vi":3648,"▁vis":3649,"▁varn":3650,"▁victor":3651,"▁cos":3652,"▁parts":3653,"▁partic":3654,"▁आर्थ":3655,"▁chos":3656,"▁churid":3657,"▁speak":3658,"▁process":3659,"▁provided":3660,"▁contain":3661,"▁contains":3662,"ాలలో":3663,"▁उन":3664,"ally,":3665,"ameez":3666,"osition":3667,"▁becoming":3668,"▁2011,":3669,"▁Janata":3670,"▁শিল্প":3671,"েশন":3672,"▁pers":3673,"▁margin":3674,"▁marked":3675,"▁economy.":3676,"▁forms":3677,"▁formal":3678,"ressed":3679,"▁शुर":3680,"▁विस्त":3681,"ryan":3682,"▁kilomet":3683,"▁kameez":3684,"▁adv":3685,"▁adop":3686,"▁addition":3687,"▁added":3688,"▁clim":3689,"▁sep":3690,"▁level":3691,"▁century.":3692,"▁centuries,":3693,"mediately":3694,"▁elected":3695,"▁Va":3696,"▁For":3697,"▁Fron":3698,"▁গ্র":3699,"▁government,":3700,"▁governments":3701,"▁primary":3702,"▁decade":3703,"▁world.":3704,"▁regions.":3705,"▁populous":3706,"oka":3707,"▁Indones":3708,"▁trade":3709,"reath":3710,"▁ago,":3711,"▁compan":3712,"▁compromise":3713,"▁year.":3714,"▁300":3715,"▁share":3716,"▁2001":3717,"▁Lank":3718,"▁resident":3719,"▁system.":3720,"▁7.":3721,"▁পরমাণ":3722,"র্বাচ":3723,"▁400":3724,"▁1951,":3725,"ine.":3726,"ricket":3727,"▁suppl":3728,"▁medi":3729,"▁consum":3730,"▁consists":3731,"క్కు":3732,"▁ministers.":3733,"▁latter":3734,"গুল":3735,"▁చే":3736,"▁heredi":3737,"▁impro":3738,"▁1991,":3739,"▁displ":3740,"ন্তর্":3741,"renc":3742,"▁BCE.":3743,"▁Empire.":3744,"ंगा":3745,"▁urbanisation":3746,"▁office":3747,"▁expans":3748,"▁express":3749,"▁elections":3750,"▁language\"":3751,"▁language,":3752,"▁जाती":3753,"▁নির্বাচ":3754,"ড়ে":3755,"ency,":3756,"▁follow":3757,"▁recent":3758,"▁recogn":3759,"▁northwest":3760,"▁railway":3761,"▁time,":3762,"▁appear":3763,"▁দেশে":3764,"দ্ধি":3765,"▁subcontinent,":3766,"▁classical,":3767,"▁খ্রি":3768,"▁Mohen":3769,"ext":3770,"ples":3771,"धिकार":3772,"ables,":3773,"▁China,":3774,"▁parliament.":3775,"▁them.":3776,"▁setting":3777,"▁refer":3778,"▁constitutional":3779,"▁leader,":3780,"▁स्था":3781,"▁crucial":3782,"▁signed":3783,"▁gradually":3784,"▁style":3785,"▁जनजा":3786,"▁mathematical":3787,"▁Himalayan":3788,"▁ধর্ম":3789,"▁coll":3790,"anced":3791,"crimin":3792,"mitted":3793,"क्ति":3794,"▁use":3795,"▁culture.":3796,"▁weap":3797,"▁associ":3798,"▁assert":3799,"▁territories":3800,"▁transmitted":3801,"▁कार्य":3802,"▁बहुत":3803,"▁थी।":3804,"ctions":3805,"▁enter":3806,"▁originally":3807,"▁census,":3808,"▁figures":3809,"▁drain":3810,"▁remaining":3811,"▁status":3812,"▁armies":3813,"▁devotion":3814,"▁marriages":3815,"▁right":3816,"▁supported":3817,"▁painting,":3818,"▁1,000":3819,"▁स्थित":3820,"struc":3821,"▁राष्ट्रीय":3822,"▁styles":3823,"▁mathematics":3824,"▁రాజ్య":3825,"যোগ্য":3826,"▁1950s,":3827,"চিত্র":3828,"▁tribal":3829,"▁currenc":3830,"▁makes":3831,"▁factor":3832,"▁Arabian":3833,"▁strong":3834,"▁distin":3835,"▁village":3836,"▁character":3837,"▁protected":3838,"▁respon":3839,"▁consider":3840,"▁increasingly":3841,"▁employed":3842,"▁liberal":3843,"▁independence":3844,"▁వ్యవస్థ":3845,"▁13th":3846,"▁Assembly":3847,"▁অধিক":3848,"▁প্রথম":3849,"▁উল্লেখযোগ্য":3850,"guard":3851,"mission":3852,"द्योग":3853,"▁era":3854,"▁veget":3855,"▁cultures":3856,"▁written":3857,"▁summer":3858,"▁safe":3859,"▁manuscri":3860,"▁loose":3861,"oulder":3862,"▁retur":3863,"▁natal":3864,"▁Civilisation":3865,"▁(c.":3866,"▁exchange":3867,"▁Deccan":3868,"▁Gupta":3869,"▁Greek":3870,"▁introduced":3871,"▁disputes":3872,"▁script":3873,"▁Constituent":3874,"▁Maurya":3875,"▁Indo-Aryan":3876,"▁contributions":3877,"▁capita":3878,"▁architecture":3879,"▁indigenous":3880,"▁Gujarat":3881,"touchability":3882,"▁निर्माण":3883,"ার্কিন":3884,"मंत्री":3885,"▁सैन्य":3886,"▁Ashoka":3887,"▁పార్ట":3888,"▁Early":3889,"▁যদিও":3890,"▁नेतृत":3891,"▁దక్షి":3892,"European":3893,"bellion":3894,"daro,":3895,"jo-daro,":3896,"ladesh":3897,"passing":3898,"▁energy":3899,"▁average":3900,"▁sovereign":3901,"▁sector":3902,"▁sometimes":3903,"▁predomin":3904,"▁laws":3905,"omestic":3906,"▁effect":3907,"▁habitat":3908,"▁reached":3909,"▁revenues":3910,"▁সাধারণ":3911,"▁Bangladesh":3912,"▁Pallav":3913,"▁strength":3914,"▁Demographics":3915,"▁another":3916,"▁आर्थिक":3917,"▁chosen":3918,"▁kilometres":3919,"▁পরমাণু":3920,"▁Mohenjo-daro,":3921,"9,":3922,"ns":3923,"νδ":3924,"टी":3925,"णा":3926,"तर":3927,"त्":3928,"प्र":3929,"रो":3930,"वाद":3931,"ाँ":3932,"ील":3933,"ून":3934,"ेष":3935,"ोष":3936,"খা":3937,"নে":3938,"পু":3939,"ব্য":3940,"র্য":3941,"লার":3942,"ি,":3943,"িব":3944,"িষ্ট":3945,"ূর্ণ":3946,"েষ":3947,"েক্ষা":3948,"োজ":3949,"৫৬":3950,"ంప":3951,"భుత":3952,"రణ":3953,"Ἰνδ":3954,"▁,":3955,"▁कम":3956,"▁कॉंग्रेस":3957,"ারা":3958,"▁सद":3959,"▁सह":3960,"▁সে":3961,"▁पर्व":3962,"▁(A":3963,"▁(Ἰνδ":3964,"▁में,":3965,"▁Mumb":3966,"▁ক্রিক":3967,"▁పరి":3968,"▁अल":3969,"▁अव":3970,"ారం":3971,"▁অজান":3972,"র্ধ":3973,"▁মার্কিন":3974,"▁Nat":3975,"▁দ্র":3976,"▁కు":3977,"▁కాల":3978,"ালয়":3979,"্বে":3980,"ক্ষণ":3981,"▁শত":3982,"▁ప్రజ":3983,"▁ప్రభుత":3984,"▁परमाण":3985,"▁అయ":3986,"ায়ু":3987,"▁संग":3988,"াত্র":3989,"▁যা":3990,"soon":3991,"▁30":3992,"▁সংস":3993,"▁পরী":3994,"▁జనా":3995,"াহিন":3996,"▁1960":3997,"▁ఇతర":3998,"न्द्र":3999,"▁উপক":4000,"▁জনপ্র":4001,"ించింది.":4002,"▁ఆర్":4003,"▁ফুট":4004,"▁হিসে":4005,"▁प्राप्त":4006,"▁তারিখ":4007,"▁स्थान":4008,"▁దేశంలో":4009,"▁করতে":4010,"▁భాష":4011,"▁हुआ।":4012,"▁ক্ষেত্রে":4013,"▁మొద":4014,"ভূমি":4015,"▁অর্থনৈতিক":4016,"বস্থা":4017,"▁Class":4018,"▁হিন্দু":4019,"▁హిందూ":4020,"▁পশ্চিম":4021,"▁न्याया":4022,"▁गणराज्य":4023,"▁मुख्य":4024,"▁এছাড়া":4025,"క్కువ":4026,"▁जनजाति":4027,"▁অজানা":4028,"▁ప్రభుత్వ":4029,"▁परमाणु":4030,"▁জনপ্রিয়":4031,"▁ফুটবল":4032,"40":4033,"51":4034,"61":4035,"द्र":4036,"निक":4037,"फ़":4038,"रूप":4039,"शन":4040,"िर":4041,"ीरे":4042,"ृति":4043,"्ल":4044,"्ले":4045,"ংগ্র":4046,"আই":4047,"ঐতিহ":4048,"খ্য":4049,"ণিজ":4050,"দ্বীপ":4051,"পে":4052,"ভাব":4053,"লব":4054,"শীল":4055,"সাবে":4056,"হি":4057,"াতি":4058,"ী,":4059,"దు":4060,"మీ":4061,"ష్":4062,"ీన":4063,"ెద్ద":4064,"▁-":4065,"▁৩":4066,"▁লা":4067,"ile":4068,"▁সু":4069,"▁সাহ":4070,"্যপ":4071,"▁বে":4072,"▁21":4073,"▁28":4074,"▁(B":4075,"▁(P":4076,"▁Polit":4077,"▁పు":4078,"▁अरब":4079,"ানি":4080,"ান্ড":4081,"▁এটি":4082,"act":4083,"्तु":4084,"▁సభ":4085,"▁సి":4086,"▁আন্দ":4087,"▁নয়":4088,"్యం":4089,"▁উদ্":4090,"রাষ্ট্র":4091,"▁Ram":4092,"ताब्":4093,"▁రెండ":4094,"▁लिये":4095,"▁2013":4096,"▁শক্ত":4097,"▁इन":4098,"▁शताब्":4099,"▁विभ":4100,"▁संसद":4101,"्वीप":4102,"▁V.":4103,"▁গা":4104,"াব্দ":4105,"▁यू":4106,"▁পর্য":4107,"▁1965":4108,"ాత్ర":4109,"▁समाज":4110,"▁1991":4111,"ology":4112,"▁अन्त":4113,"▁২০১":4114,"ించిన":4115,"▁বাণিজ":4116,"▁হিসাবে":4117,"▁१९९":4118,"▁जिसमें":4119,"▁क्षेत्रीय":4120,"▁बहुम":4121,"তমাল":4122,"▁সঙ্গীত":4123,"▁वर्षों":4124,"▁ईसा":4125,"▁যুদ্ধ":4126,"▁युद्ध":4127,"▁ঘট":4128,"▁উৎস":4129,"▁స్థాన":4130,"▁पहले":4131,"▁विकास":4132,"▁వచ్చింది.":4133,"▁শাসন":4134,"▁জনসংখ্যা":4135,"▁ओर":4136,"▁প্রস্তাব":4137,"▁प्रधानमंत्री":4138,"స్కృ":4139,"ण्ड":4140,"▁পর্বতমাল":4141,"▁ब्रि":4142,"▁स्थाप":4143,"▁పార్టీ":4144,"▁नेतृत्व":4145,"▁ক্রিকেট":4146,"▁উপকূল":4147,"▁সাহিত":4148,"▁Politics":4149,"▁शताब्दी":4150,"..":4151,"24":4152,"5%":4153,"64":4154,"80":4155,"aː":4156,"cover":4157,"eth":4158,"nd":4159,"ove":4160,"rat":4161,"tr":4162,"u,":4163,"yp":4164,"yal":4165,"एँ":4166,"धि":4167,"पर":4168,"पाल":4169,"भग":4170,"मिल":4171,"लय":4172,"स,":4173,"सम":4174,"हें":4175,"हरी":4176,"ीस":4177,"ॉल":4178,"ौर":4179,"কাপ":4180,"ণ্ড":4181,"প্ত":4182,"বর":4183,"বেশ":4184,"ভারত":4185,"মহ":4186,"মালয়":4187,"শাস":4188,"শিষ্ট":4189,"িশ":4190,"েক":4191,"োর":4192,"৭৪":4193,"ంక":4194,"గర":4195,"దా":4196,"పాల":4197,"వాత":4198,"ిల్ల":4199,"ుకు":4200,"ుంది.":4201,"–19":4202,"▁య":4203,"▁ను":4204,"▁ঐতিহ":4205,"on,":4206,"alf":4207,"dia":4208,"andy":4209,"arb":4210,"▁कि":4211,"▁कर्":4212,"▁किन":4213,"▁edi":4214,"▁16.":4215,"▁साल":4216,"▁सर्व":4217,"▁To":4218,"ilm":4219,"ulk":4220,"uls":4221,"▁पुर":4222,"▁পার":4223,"▁Soc":4224,"▁Some":4225,"▁বর্ত":4226,"▁বহু":4227,"▁বাহিন":4228,"amb":4229,"▁22":4230,"▁21.":4231,"▁भाग":4232,"adem":4233,"▁কাল":4234,"▁పట్ట":4235,"్రె":4236,"ান্":4237,"▁जब":4238,"▁जान":4239,"▁व्या":4240,"▁He":4241,"▁Dis":4242,"▁Nar":4243,"▁रक्षा":4244,"▁প্রচ":4245,"▁প্রা":4246,"▁প্রযুক্ত":4247,"upt":4248,"▁দল":4249,"▁আজ":4250,"▁కొ":4251,"▁प्रभा":4252,"▁काल":4253,"ival":4254,"▁వా":4255,"▁বিভি":4256,"▁উদ্ধ":4257,"ন্ড":4258,"▁गठ":4259,"▁Rep":4260,"▁आद":4261,"ాలను":4262,"aval":4263,"▁ला":4264,"▁लोग":4265,"▁Chand":4266,"▁K.":4267,"▁Ka":4268,"▁Ko":4269,"▁అతి":4270,"stitut":4271,"▁विदेश":4272,"anguages":4273,"স্কার":4274,"▁Vi":4275,"▁एवं":4276,"ence.":4277,"▁Or":4278,"▁যুক্ত":4279,"duction":4280,"বিধান":4281,"▁500":4282,"▁55,":4283,"ड़ी":4284,"▁তথ":4285,"▁Languages":4286,"▁ఉంట":4287,"▁ఉత్":4288,"▁সংবিধান":4289,"▁राजनी":4290,"▁జరి":4291,"▁42":4292,"▁40%":4293,"క్క":4294,"▁থাকে":4295,"▁ইন্দ":4296,"ological":4297,"▁নিজ":4298,"▁1947":4299,"▁১৯৫":4300,"▁১৯৮":4301,"हाँ":4302,"▁निभा":4303,"perial":4304,"▁తరు":4305,"▁ద్వ":4306,"▁जनसं":4307,"1.1":4308,"▁Shiv":4309,"ances,":4310,"গ্রহ":4311,"ost-":4312,"▁थे":4313,"बंधन":4314,"▁दोनों":4315,"▁০-১৯-":4316,"▁২০০৮":4317,"म्भ":4318,"▁ডলার":4319,"▁সামরিক":4320,"▁1930":4321,"▁ক্ষম":4322,"ంద్ర":4323,"▁कुछ":4324,"▁कुल":4325,"వాణా":4326,"▁দুই":4327,"▁গণতান্ত্রিক":4328,"▁দেখা":4329,"▁संस्कृति":4330,"▁మార్గాలు":4331,"टिश":4332,"▁भूमिका":4333,"▁দশক":4334,"▁स्वतंत्रता":4335,"ప్ప":4336,"▁క్రీడ":4337,"▁খ্রিষ্ট":4338,"▁सदस":4339,"▁అయిన":4340,"▁జనాభా":4341,"▁হিসেবে":4342,"▁Classical":4343,"ংগ্রেস":4344,"▁বাণিজ্য":4345,"▁ब्रिटिश":4346,"▁সাহিত্য":4347,"▁বর্তমান":4348,"▁বিভিন্ন":4349,"▁Republic":4350,"▁55,000":4351,"▁తరువాత":4352,"▁जनसंख्या":4353,"\")":4354,"(2":4355,"-p":4356,"-t":4357,"-w":4358,"-y":4359,"-১":4360,"-st":4361,"-di":4362,"-পূর্ব":4363,".6%":4364,"100":4365,"31":4366,"94":4367,"Congress":4368,"Gang":4369,"I,":4370,"Prol":4371,"Zor":4372,"aith":4373,"air":4374,"aem":4375,"ares":4376,"ahar":4377,"aism,":4378,"buc":4379,"bour":4380,"book":4381,"bably":4382,"che":4383,"com":4384,"cil":4385,"co-":4386,"cale":4387,"creasing":4388,"den":4389,"dro":4390,"del":4391,"down":4392,"eb":4393,"eas":4394,"east":4395,"ead":4396,"eous":4397,"eolog":4398,"fer":4399,"fort":4400,"fied":4401,"ga":4402,"gadi":4403,"has":4404,"ha,":4405,"hav":4406,"hau":4407,"h-largest":4408,"house":4409,"ie":4410,"ip":4411,"iant":4412,"iqu":4413,"ia.":4414,"ii)":4415,"jay":4416,"jant":4417,"king":4418,"key":4419,"ls":4420,"lal":4421,"les":4422,"ling":4423,"lus":4424,"lands":4425,"ma":4426,"mar,":4427,"mns":4428,"mology":4429,"nit":4430,"nic":4431,"ning":4432,"oor":4433,"ober":4434,"ovi":4435,"oetic":4436,"oastri":4437,"pid":4438,"pot":4439,"phere":4440,"rical":4441,"rdu":4442,"round":4443,"rising":4444,"rtic":4445,"sur":4446,"sol":4447,"set":4448,"side":4449,"spot":4450,"tt":4451,"tu":4452,"tent":4453,"tary":4454,"tell":4455,"tract":4456,"tified":4457,"uk":4458,"yn":4459,"ying":4460,"yth":4461,"yle":4462,"zed":4463,"ंब":4464,"खा":4465,"गत":4466,"गर":4467,"चल":4468,"ची":4469,"तु":4470,"थिय":4471,"दल":4472,"पे":4473,"मन":4474,"वल":4475,"सभा":4476,"ीत":4477,"ुनिक":4478,"ूल":4479,"ेर":4480,"ोह":4481,"কি":4482,"গণ":4483,"গর":4484,"জন":4485,"ণী":4486,"তায়":4487,"থে":4488,"দিকে":4489,"পতি":4490,"ম্":4491,"মন্ত্র":4492,"সল":4493,"াংশ":4494,"ুল":4495,"োক":4496,"োদ":4497,"োমি":4498,"্ঞ":4499,"২১":4500,"৪৪":4501,"కీయ":4502,"గ్":4503,"గిన":4504,"టిక":4505,"నాలు":4506,"బడ":4507,"రో":4508,"లా":4509,"లలో":4510,"ిళ":4511,"ెలు":4512,"ౌక":4513,"▁x":4514,"▁°":4515,"▁ऋ":4516,"▁५":4517,"▁ట":4518,"▁₹":4519,"▁ro":4520,"▁ide":4521,"▁6%":4522,"▁enc":4523,"▁ess":4524,"▁Zor":4525,"▁ten":4526,"▁tal":4527,"▁tand":4528,"▁tun":4529,"▁tub":4530,"aning":4531,"anism":4532,"hest":4533,"head":4534,"hereas":4535,"hered":4536,"hess":4537,"herent":4538,"in.":4539,"ines":4540,"inth":4541,"inated":4542,"indh":4543,"inition":4544,"one":4545,"onic":4546,"onvi":4547,"onomet":4548,"eror":4549,"erly":4550,"erial":4551,"erous":4552,"erved":4553,"ercontinent":4554,"ert,":4555,"ret":4556,"ream":4557,"reak":4558,"▁aut":4559,"▁amp":4560,"▁action":4561,"▁amend":4562,"▁own":4563,"▁open":4564,"stant":4565,"stian":4566,"aled":4567,"ala,":4568,"ality,":4569,"dient":4570,"diment":4571,"dified":4572,"ath":4573,"atom":4574,"ata,":4575,"ati,":4576,"atures":4577,"atives":4578,"attle":4579,"▁II,":4580,"andar":4581,"ands,":4582,"▁cin":4583,"▁cut":4584,"▁cere":4585,"▁cust":4586,"▁cuis":4587,"▁cattle":4588,"ed.":4589,"edd":4590,"ital":4591,"ities":4592,"ars.":4593,"ari,":4594,"arrow":4595,"arsh":4596,"arian":4597,"arger":4598,"▁International":4599,"▁Increasing":4600,"▁wet":4601,"▁way":4602,"▁welf":4603,"▁whereas":4604,"▁international":4605,"▁inno":4606,"▁sw":4607,"▁she":4608,"▁suc":4609,"▁saw":4610,"▁siz":4611,"▁sites":4612,"▁sole":4613,"▁self":4614,"▁and,":4615,"ory":4616,"oral":4617,"ortion":4618,"ority":4619,"organ":4620,"▁ban":4621,"▁bal":4622,"▁bar":4623,"▁brough":4624,"▁bond":4625,"▁bron":4626,"▁bread":4627,"▁bott":4628,"▁breath":4629,"▁bulk":4630,"▁break":4631,"▁pur":4632,"▁pil":4633,"▁ple":4634,"▁past":4635,"▁pot":4636,"▁pass":4637,"▁poin":4638,"▁paren":4639,"▁push":4640,"▁portion":4641,"es)":4642,"ese,":4643,"ic.":4644,"icken":4645,"▁mand":4646,"▁may":4647,"▁manu":4648,"▁mix":4649,"▁fest":4650,"▁fav":4651,"▁fish":4652,"▁fire":4653,"▁flo":4654,"▁food":4655,"▁fash":4656,"▁film":4657,"▁foetic":4658,"ision":4659,"isans":4660,"isions":4661,"isdic":4662,"ased":4663,"ass.":4664,"asures":4665,"ential":4666,"▁ling":4667,"▁late":4668,"▁lies":4669,"▁lab":4670,"▁live":4671,"▁leng":4672,"▁less":4673,"▁living":4674,"▁larger":4675,"▁India:":4676,"▁event":4677,"▁evol":4678,"▁emb":4679,"▁epic":4680,"▁either":4681,"▁top":4682,"▁11":4683,"▁Ter":4684,"▁Tib":4685,"ly.":4686,"▁hun":4687,"▁hot":4688,"▁hous":4689,"▁host":4690,"▁house":4691,"▁half":4692,"▁dh":4693,"▁do":4694,"▁dem":4695,"▁dest":4696,"▁doc":4697,"▁down":4698,"▁drew":4699,"▁due":4700,"▁dense":4701,"▁desc":4702,"▁domestic":4703,"▁dyn":4704,"ury":4705,"urta":4706,"urisdic":4707,"econom":4708,"্রুপ":4709,"▁rest":4710,"▁rece":4711,"▁rept":4712,"▁relief":4713,"▁rebellion":4714,"▁network":4715,"▁next":4716,"▁ninth":4717,"▁nonvi":4718,"▁narrow":4719,"▁gro":4720,"▁gig":4721,"▁give":4722,"▁govern":4723,"▁geograph":4724,"▁green":4725,"▁geolog":4726,"▁मन":4727,"▁Ach":4728,"▁Agenc":4729,"▁Ajant":4730,"ilar":4731,"▁हथिय":4732,"ारम्भ":4733,"▁সদ":4734,"▁সক্ষম":4735,"▁Cup":4736,"▁Cav":4737,"▁Culture":4738,"▁Clim":4739,"▁Carn":4740,"▁Cricket":4741,"▁Camb":4742,"▁Chess":4743,"olent":4744,"olved":4745,"ollowing":4746,"olcan":4747,"ulos":4748,"▁They":4749,"ri,":4750,"rior":4751,"ries":4752,"riya,":4753,"ristian":4754,"▁पै":4755,"▁पड़":4756,"▁प्ले":4757,"ra.":4758,"▁Bal":4759,"▁Between":4760,"▁Bah":4761,"▁পাত":4762,"▁পাক":4763,"▁Sim":4764,"▁Sab":4765,"▁Sant":4766,"▁Sever":4767,"▁Sarn":4768,"▁Sultanate":4769,"▁Sovi":4770,"amed":4771,"▁केन्द्र":4772,"ropp":4773,"ceed":4774,"▁19th":4775,"isting":4776,"istent":4777,"▁(U":4778,"▁(|":4779,"▁(inc":4780,"▁(In":4781,"▁Indians.":4782,"ets":4783,"ety":4784,"etah":4785,"adwe":4786,"iming":4787,"iger":4788,"igion":4789,"gest":4790,"▁thorn":4791,"▁P.":4792,"iding":4793,"idel":4794,"ide,":4795,"idesp":4796,"iduous":4797,"▁Major":4798,"▁Marat":4799,"▁কৃ":4800,"▁কংগ্রেস":4801,"▁fortified":4802,"irm":4803,"irt":4804,"▁ranges":4805,"▁rati":4806,"▁role":4807,"▁best":4808,"▁begin":4809,"ment,":4810,"ment.":4811,"mental":4812,"mented":4813,"▁పాల":4814,"▁పాక":4815,"▁పెద్ద":4816,"్రదాయ":4817,"tional":4818,"▁अर्थ":4819,"ter-g":4820,"▁what":4821,"▁stud":4822,"▁stif":4823,"▁standar":4824,"▁model":4825,"▁El":4826,"▁Emerg":4827,"▁Ety":4828,"resolved":4829,"▁অক্":4830,"▁जिन":4831,"▁नद":4832,"▁नाग":4833,"▁बने":4834,"र्त":4835,"▁exerc":4836,"▁did":4837,"▁died":4838,"▁dise":4839,"లు,":4840,"▁Gener":4841,"▁Gond":4842,"▁any":4843,"▁anatom":4844,"▁दर":4845,"acket":4846,"sel":4847,"▁Ni":4848,"▁Nort":4849,"▁Nep":4850,"▁Network":4851,"▁NDA":4852,"▁orally":4853,"▁only":4854,"▁onset":4855,"ayat":4856,"illed":4857,"িত)":4858,"▁প্রায়":4859,"▁দি":4860,"▁arisen":4861,"▁20th":4862,"▁సంగ":4863,"▁united":4864,"▁untouchability":4865,"▁uncom":4866,"▁unresolved":4867,"▁আয়":4868,"▁are:":4869,"▁area.":4870,"▁కలి":4871,"akh":4872,"och":4873,"▁तमिल":4874,"▁प्रकार":4875,"▁प्रारम्भ":4876,"ants,":4877,"▁income":4878,"otech":4879,"duce":4880,"▁काम":4881,"▁alliance":4882,"▁commit":4883,"▁comfort":4884,"eligion":4885,"▁వంట":4886,"ary,":4887,"ends":4888,"▁vary":4889,"▁valle":4890,"▁voted":4891,"▁volcan":4892,"▁উচ্চ":4893,"▁सेवा":4894,"▁Wildlif":4895,"▁WHO":4896,"ाजपा":4897,"▁centre":4898,"▁deleg":4899,"▁depend":4900,"▁UPA":4901,"▁Urdu":4902,"sia,":4903,"▁cost":4904,"ought":4905,"oury":4906,"ources":4907,"ogam":4908,"▁Religion":4909,"▁জোট":4910,"▁partially":4911,"▁chain":4912,"▁chap":4913,"▁child":4914,"▁proj":4915,"▁produced":4916,"▁probably":4917,"▁produce":4918,"▁contra":4919,"agan":4920,"ously":4921,"▁attract":4922,"▁రవాణా":4923,"ally.":4924,"avated":4925,"cts":4926,"ctober":4927,"iferation":4928,"ర్ణ":4929,"osing":4930,"osa,":4931,"osphere":4932,"ance,":4933,"▁लिया":4934,"assinated":4935,"▁2018":4936,"▁2010.":4937,"▁Jhar":4938,"▁Jaw":4939,"▁Jamm":4940,"▁June":4941,"▁Chol":4942,"▁Champ":4943,"▁Chhau":4944,"▁Christian":4945,"ajpay":4946,"▁Keral":4947,"▁percent":4948,"▁marry":4949,"▁marsh":4950,"▁economies":4951,"▁economy,":4952,"▁form,":4953,"▁forms.":4954,"▁formally":4955,"app":4956,"aps":4957,"aput":4958,"ressive":4959,"▁इंड":4960,"▁परंप":4961,"▁regist":4962,"▁అనే":4963,"▁plant":4964,"▁kh":4965,"▁kurta":4966,"▁advent":4967,"▁cloth":4968,"▁close":4969,"▁class.":4970,"▁sex":4971,"▁seals":4972,"▁seats":4973,"▁sediment":4974,"▁substant":4975,"▁largely":4976,"▁large-s":4977,"▁related":4978,"▁relative":4979,"▁संयु":4980,"mework":4981,"▁elect":4982,"▁elites":4983,"▁elites,":4984,"▁Vis":4985,"▁Vedic":4986,"▁Vajpay":4987,"▁Following":4988,"luding":4989,"▁Over":4990,"▁Out":4991,"▁Old":4992,"▁Ocean":4993,"▁October":4994,"▁decreasing":4995,"▁deciduous":4996,"▁artic":4997,"▁artistic":4998,"▁artisans":4999,"▁region.":5000,"▁যে":5001,"▁যার":5002,"▁Asians":5003,"লিয়ন":5004,"▁agree":5005,"▁company":5006,"▁comprising":5007,"▁years,":5008,"▁करना":5009,"fficial":5010,"▁34":5011,"▁361":5012,"▁ending":5013,"▁short":5014,"▁shore":5015,"▁shared":5016,"▁shalw":5017,"▁shoulder":5018,"ections":5019,"▁includes":5020,"▁55.":5021,"▁2009":5022,"▁2001,":5023,"▁2008,":5024,"rowing":5025,"ighbour":5026,"1,3":5027,"▁Lat":5028,"▁Laksh":5029,"ganiz":5030,"wealth":5031,"▁overran":5032,"▁systems":5033,"▁7th":5034,"▁70%":5035,"hibian":5036,"▁সংখ্যা":5037,"ajority":5038,"▁1950.":5039,"▁1962":5040,"▁inform":5041,"▁supreme":5042,"▁supercontinent":5043,"▁medic":5044,"▁megadi":5045,"▁meaning":5046,"▁peace":5047,"▁latitud":5048,"▁numeral":5049,"▁generated":5050,"▁that,":5051,"▁2022,":5052,"▁2023.":5053,"▁2026,":5054,"sha":5055,"▁সময়":5056,"▁इसी":5057,"▁imple":5058,"▁immediately":5059,"▁imperial":5060,"▁1999.":5061,"▁ruled":5062,"▁ruling":5063,"▁dishes":5064,"▁discrimin":5065,"▁traditions":5066,"▁traditions.":5067,"lic,":5068,"▁scen":5069,"▁sched":5070,"▁classes":5071,"▁years;":5072,"▁British-st":5073,"▁notable":5074,"▁growing":5075,"▁expanding":5076,"▁exporter":5077,"▁election.":5078,"▁elections.":5079,"▁population,":5080,"▁numbers":5081,"▁numbers,":5082,"▁Buddha":5083,"▁Buddhism,":5084,"ৃত্য":5085,"ৃতিক":5086,"▁ఇది":5087,"▁जाते":5088,"efly":5089,"কারী":5090,"▁নিয়ে":5091,"▁south,":5092,"▁south.":5093,"▁southwest":5094,"▁folk":5095,"▁lands":5096,"▁north,":5097,"ically,":5098,"monwealth":5099,"niqu":5100,"violence":5101,"▁উপেক্ষা":5102,"▁jurisdic":5103,"▁jacket":5104,"▁rapid":5105,"▁appoin":5106,"▁applied":5107,"▁east.":5108,"▁18th":5109,"▁repeated":5110,"▁represent":5111,"ilitated":5112,"▁Pakistan)":5113,"▁Pakistan,":5114,"▁later,":5115,"స్త్ర":5116,"స్తుత":5117,"ards":5118,"▁CE.":5119,"awat":5120,"▁therefore":5121,"▁thereafter":5122,"▁able":5123,"▁above":5124,"▁power.":5125,"▁humans":5126,"▁Alliance":5127,"▁Commonwealth":5128,"▁rate,":5129,"▁extreme":5130,"▁extends":5131,"▁species.":5132,"▁influences":5133,"▁country,":5134,"स्थ":5135,"ঞ্চলে":5136,"▁Thail":5137,"▁Modi":5138,"▁वर्ग":5139,"ంగ్రె":5140,"▁6th":5141,"▁occas":5142,"▁occurred":5143,"▁warrior":5144,"espite":5145,"▁material":5146,"▁life,":5147,"▁literary":5148,"▁literature":5149,"▁historical":5150,"▁history,":5151,"▁historically":5152,"▁historians":5153,"▁state,":5154,"▁period.":5155,"▁rivers,":5156,"ুরু":5157,"▁हिमाल":5158,"▁Plain":5159,"▁US$2,":5160,"▁US$100":5161,"▁বিশ্বকাপ":5162,"▁బహ":5163,"▁Still":5164,"▁States,":5165,"-des":5166,"-day":5167,"ronic":5168,"▁settle":5169,"▁refl":5170,"▁non-Congress":5171,"▁non-co-":5172,"▁non-violence":5173,"▁Eastern":5174,"ultaneous":5175,"▁1971,":5176,"▁Delhi,":5177,"ackbuc":5178,"▁उत्प":5179,"auth":5180,"▁था,":5181,"▁others":5182,"▁prevent":5183,"▁mainly":5184,"▁maintain":5185,"▁farmer":5186,"▁emphas":5187,"▁emperor":5188,"▁gradient":5189,"▁defeated":5190,"▁definition":5191,"▁Indo-European":5192,"▁Indo-Gang":5193,"▁forest,":5194,"▁forests,":5195,"▁music.":5196,"▁Himalayas,":5197,"▁colleg":5198,"▁colonial":5199,"▁अप्र":5200,"▁अपने":5201,"▁अपनी":5202,"ిత్ర":5203,"▁ఎక్కువ":5204,"▁Shastri":5205,"▁প্রধানমন্ত্র":5206,"▁বৃদ্ধি":5207,"▁Plate.":5208,"cription":5209,"puts,":5210,"vidence":5211,"▁२००":5212,"▁enabl":5213,"▁usually":5214,"▁techniqu":5215,"▁accom":5216,"▁accoun":5217,"▁access":5218,"▁according":5219,"▁Islam,":5220,"▁Islamic":5221,"▁Islands,":5222,"▁cities,":5223,"▁citiz":5224,"▁web":5225,"▁highly":5226,"▁assassinated":5227,"▁coastal":5228,"▁coastline":5229,"▁contribut":5230,"▁contributed":5231,"▁Jainism":5232,"▁Jainism,":5233,"▁plains,":5234,"▁territorial":5235,"▁territories.":5236,"▁country's":5237,"▁courts,":5238,"▁courts.":5239,"▁transform":5240,"▁Sikhs,":5241,"ांति":5242,"▁অন্যতম":5243,"▁17th":5244,"▁রাষ্ট্র।":5245,"vene":5246,"▁Europe.":5247,"▁సాధ":5248,"-sp":5249,"▁original":5250,"▁industrial":5251,"▁biodiversity":5252,"▁biotech":5253,"▁feature":5254,"▁lasted":5255,"▁remained":5256,"▁neighbour":5257,"▁statu":5258,"▁movement.":5259,"▁exports":5260,"▁exported":5261,"▁exports.":5262,"▁diffused":5263,"▁diversity.":5264,"▁animals":5265,"▁arms":5266,"▁archaic":5267,"▁devast":5268,"▁married":5269,"▁support.":5270,"▁second-largest":5271,"▁occupation,":5272,"▁literacy,":5273,"▁paintings":5274,"▁Yaksh":5275,"▁(সাহায্য);":5276,"▁Sea":5277,"▁Sea.":5278,"4.4":5279,"century":5280,"ped.":5281,"▁घोष":5282,"ati.":5283,"▁carved":5284,"▁intervention":5285,"▁present":5286,"▁presence":5287,"▁president,":5288,"▁promin":5289,"▁nationalist":5290,"▁Bihar":5291,"▁Biodiversity":5292,"▁commerce":5293,"▁markets.":5294,"▁several":5295,"▁severely":5296,"▁declared":5297,"▁styles,":5298,"▁mathematicians":5299,"ছিল।":5300,"▁কেন্দ্রীয়":5301,"racy.":5302,"▁बड़ा":5303,"ాబ్":5304,"▁Rajiv":5305,"▁Rajputs,":5306,"-growing":5307,"-majority":5308,"wana,":5309,"▁temper":5310,"▁temples":5311,"▁texts":5312,"▁textil":5313,"▁affair":5314,"▁affirm":5315,"▁obs":5316,"▁obstruc":5317,"atherers,":5318,"▁civilian":5319,"▁winds":5320,"▁blackbuc":5321,"▁men,":5322,"▁make":5323,"▁flour":5324,"▁five-y":5325,"▁ethical":5326,"▁everyday":5327,"▁10th":5328,"▁dominion":5329,"▁dominance":5330,"▁gender":5331,"▁garlic,":5332,"▁2.8":5333,"▁GDP,":5334,"▁annually":5335,"▁annual":5336,"▁various":5337,"▁spreading":5338,"▁administration":5339,"▁subsequently":5340,"▁complex":5341,"▁respective":5342,"▁Union.":5343,"▁policy":5344,"▁policies":5345,"▁cause":5346,"▁term.":5347,"▁survives":5348,"▁coalition,":5349,"▁legislature":5350,"▁independent":5351,"▁Brahmaput":5352,"ोलन":5353,"▁रहे":5354,"▁ముఖ్య":5355,"▁Desert,":5356,"-body":5357,"ందిన":5358,"▁ఏర్":5359,"▁turned":5360,"erculos":5361,"dised":5362,"▁cheetah":5363,"▁creating":5364,"▁creativity":5365,"▁involved":5366,"▁involving":5367,"▁soon":5368,"orne":5369,"▁practic":5370,"▁monsoon":5371,"▁multi-":5372,"▁family":5373,"▁flowering":5374,"▁layer":5375,"▁democratic":5376,"▁democracy.":5377,"▁steamed":5378,"▁excavated":5379,"▁Ghats,":5380,"▁కాంగ్రె":5381,"▁partition.":5382,"▁sports":5383,"▁लगभग":5384,"▁played":5385,"▁Foreign":5386,"▁languages,":5387,"▁languages.":5388,"▁Hindustan":5389,"▁Hindustani":5390,"▁against":5391,"▁meat,":5392,"▁pollution":5393,"▁service":5394,"▁south-west":5395,"▁secular,":5396,"▁extensively":5397,"▁crust,":5398,"▁Himalayas.":5399,"▁ఎన్నో":5400,"▁Plateau,":5401,"▁schools":5402,"▁renewable":5403,"ज़ी":5404,"▁সংস্কৃতি":5405,"laiming":5406,"ম্বর":5407,"▁हालाँ":5408,"▁(199":5409,"▁Democratic":5410,"▁স্বাধীনতা":5411,"▁पार्टी":5412,"-knit":5413,"vasive":5414,"ుకో":5415,"anagara":5416,"▁calend":5417,"▁cleared":5418,"▁initi":5419,"▁inequality,":5420,"▁similar":5421,"▁savoury":5422,"▁build":5423,"▁borders":5424,"▁briefly":5425,"▁patron":5426,"▁poverty":5427,"▁males.":5428,"▁mammals,":5429,"▁migration":5430,"▁framework":5431,"▁females":5432,"▁limited":5433,"▁like":5434,"▁towns":5435,"▁Temple":5436,"▁Treaty,":5437,"▁hymns":5438,"▁highest":5439,"▁hubs":5440,"▁nominal":5441,"▁gained":5442,"▁gods":5443,"▁goods":5444,"▁Akb":5445,"rigonomet":5446,"▁isolation":5447,"ettled":5448,"▁threatened":5449,"▁Malay":5450,"▁Myanmar,":5451,"▁Economy":5452,"▁extinct":5453,"▁example,":5454,"▁divorce":5455,"▁Geography":5456,"▁Non-Prol":5457,"▁Nicobar":5458,"▁organisation":5459,"▁unitary":5460,"▁కేంద్ర":5461,"▁violence":5462,"▁victories":5463,"▁particular":5464,"▁churidars.":5465,"▁speakers":5466,"▁margins":5467,"▁advanced":5468,"▁adopted":5469,"▁additional":5470,"▁climatic":5471,"▁separat":5472,"▁Front":5473,"▁Indonesia.":5474,"▁companies":5475,"▁Lankan":5476,"▁residents":5477,"▁7.5%":5478,"▁supplanted":5479,"▁medieval":5480,"▁consumption":5481,"▁hereditary":5482,"▁display":5483,"▁northwest.":5484,"▁railways,":5485,"धिकारिक":5486,"▁weapons":5487,"▁associated":5488,"▁strongly":5489,"▁distinct":5490,"▁characteristic":5491,"▁response":5492,"▁liberalisation":5493,"▁vegetarian":5494,"▁safeguard":5495,"▁manuscript":5496,"▁loose-knit":5497,"▁returned":5498,"▁architecture,":5499,"▁దక్షిణ":5500,"▁(Artic":5501,"▁Mumbai,":5502,"▁সংসদ":5503,"▁পরীক্ষা":5504,"▁न्यायालय":5505,"▁প্রস্তাবিত)":5506,"ypically":5507,"▁edicts":5508,"▁Health":5509,"▁প্রচল":5510,"▁प्रभाव":5511,"▁गठबंधन":5512,"▁Kaver":5513,"▁Kosi":5514,"stitutes":5515,"▁Vijay":5516,"▁Organiz":5517,"▁Shiva":5518,"(2)":5519,"aemen":5520,"aharlal":5521,"oastrianism":5522,"▁essential":5523,"▁Zoroastrianism":5524,"▁tandoor":5525,"▁tuberculos":5526,"▁amphibian":5527,"▁amendments":5528,"▁cereal":5529,"▁custom":5530,"▁welfare":5531,"▁innov":5532,"▁brought":5533,"▁bonds":5534,"▁bronz":5535,"▁bottom":5536,"▁breathing":5537,"▁points":5538,"▁parents":5539,"▁manuf":5540,"▁flood":5541,"▁foeticide,":5542,"▁length":5543,"▁eventually":5544,"▁Tibet":5545,"▁hunter-g":5546,"▁hotspot":5547,"▁houses":5548,"economic":5549,"▁nonviolent":5550,"▁groom":5551,"▁gigawat":5552,"▁greenhouse":5553,"▁Achaemen":5554,"▁हथियार":5555,"▁Cups,":5556,"▁Climate":5557,"▁Carnatic":5558,"▁प्लेट":5559,"▁Simultaneous":5560,"▁Sabha,":5561,"▁Several":5562,"▁Soviet":5563,"▁(including":5564,"adweep":5565,"idespread":5566,"▁beginnings":5567,"▁standardised":5568,"▁Emergency,":5569,"▁Etymology":5570,"▁diseas":5571,"▁General":5572,"▁Gondwana,":5573,"▁Northeast":5574,"▁Nepal":5575,"▁uncommon":5576,"▁committe":5577,"▁comfortable":5578,"▁delegates":5579,"▁dependent":5580,"▁Jharkh":5581,"▁Jawaharlal":5582,"▁Jammu":5583,"▁Christianity,":5584,"▁Kerala":5585,"▁percentage":5586,"▁marshy":5587,"▁परंपरा":5588,"▁substantially":5589,"▁large-scale":5590,"▁संयुक्त":5591,"▁Vajpaye":5592,"▁Lakshadweep":5593,"▁information":5594,"▁megadiverse":5595,"▁scheduled":5596,"▁British-style":5597,"▁jurisdiction":5598,"▁repeatedly":5599,"▁extremely":5600,"▁हिमालय":5601,"▁defeated.":5602,"▁Indo-Gangetic":5603,"▁colleges":5604,"▁transformed":5605,"▁Yakshagan":5606,"▁five-year":5607,"▁हालाँकि":5608,"▁Non-Proliferation":5609,"▁Vijayanagara":5610,"▁Organization":5611,"▁tuberculosis":5612,"▁hunter-gatherers,":5613,"▁Simultaneously,":5614,"-অ":5615,"-২":5616,"-৮":5617,"try":5618,"ंक":5619,"एं":5620,"जन":5621,"टन":5622,"णी":5623,"त्त":5624,"दा":5625,"पु":5626,"म,":5627,"लों":5628,"वरी":5629,"शील":5630,"स्व":5631,"स्ट":5632,"ा,":5633,"ांध":5634,"ाप्त":5635,"ुल":5636,"ूस":5637,"ृद्ध":5638,"ेक":5639,"ैल":5640,"ैली":5641,"ोत":5642,"ोर":5643,"উড":5644,"কল":5645,"গোল":5646,"জি":5647,"ণত":5648,"তৃত":5649,"তন্ত্র":5650,"থিব":5651,"ধী":5652,"নও":5653,"নিক":5654,"নীতি":5655,"বিক":5656,"বাদ":5657,"ব্দ":5658,"ভ্য":5659,"ষে":5660,"সভ":5661,"ীব":5662,"েই":5663,"েলা":5664,"োষ":5665,"োর্":5666,"১.":5667,"৪৫":5668,"৯৮":5669,"ం.":5670,"ం:":5671,"కాల":5672,"క్రమ":5673,"జ్య":5674,"త్ర":5675,"ధి":5676,"పతి":5677,"మే":5678,"సు":5679,"హద్ద":5680,"ా,":5681,"ావ":5682,"ిమ":5683,"్మ":5684,"▁'":5685,"▁ऑ":5686,"▁—":5687,"▁कह":5688,"▁सभ":5689,"▁स्तर":5690,"য়।":5691,"▁मंत्र":5692,"ार्":5693,"▁Coun":5694,"▁पहा":5695,"▁পরে":5696,"▁বন":5697,"▁বু":5698,"▁বলে":5699,"▁ব্যা":5700,"▁কাপ":5701,"▁কর্ত":5702,"्यता":5703,"▁పర":5704,"▁పా":5705,"▁अफ":5706,"ారి":5707,"▁जिन्":5708,"▁बार":5709,"▁वे":5710,"▁वाल":5711,"▁व्यवस्था":5712,"▁মোট":5713,"িত্র":5714,"्त्र":5715,"▁సిం":5716,"▁సరి":5717,"ान,":5718,"▁আগ":5719,"▁আর":5720,"▁আঞ্চল":5721,"▁కార":5722,"▁की।":5723,"▁तीस":5724,"▁వె":5725,"▁వే":5726,"▁మహ":5727,"ন্ট":5728,"টির":5729,"টিশ":5730,"▁गए":5731,"▁गति":5732,"▁गंगा":5733,"▁गांध":5734,"▁জলব":5735,"▁आक":5736,"▁आग":5737,"▁आधिकारिक":5738,"▁उस":5739,"▁उन्":5740,"▁শহ":5741,"▁শব্দ":5742,"▁ప్రతి":5743,"▁ప్రస్తుత":5744,"▁అత్య":5745,"ায়ী":5746,"▁विज":5747,"ियन":5748,"বিদ":5749,"▁ఉప":5750,"▁चार":5751,"▁चीन":5752,"▁সংর":5753,"▁జన":5754,"ाद्वीप":5755,"▁చిన్న":5756,"▁सम्प":5757,"▁ইং":5758,"▁ইতিহ":5759,"াপ্ত":5760,"ండు":5761,"▁ఇండి":5762,"▁होती":5763,"सेना":5764,"▁निर":5765,"▁চল":5766,"স্তান":5767,"▁বাং":5768,"▁আইন":5769,"ల్ప":5770,"ంగ్ల":5771,"▁1980":5772,"▁হিমালয়":5773,"▁রাজনৈতিক":5774,"▁বিশ্বে":5775,"▁धीरे":5776,"▁గల":5777,"▁సంస్కృ":5778,"▁१९७":5779,"▁१९८":5780,"▁जनता":5781,"▁পরিণত":5782,"▁ধ্রুপ":5783,"ork:":5784,"▁जिसके":5785,"▁অন্যদিকে":5786,"▁সরকারি":5787,"करण":5788,"iety":5789,"लावा":5790,"▁York:":5791,"্রিটিশ":5792,"▁దేశాల":5793,"▁ప్రాచ":5794,"▁হয়েছে।":5795,"▁రాజకీయ":5796,"▁ডি":5797,"▁লক্ষ":5798,"▁ভাষা":5799,"▁बड़ी":5800,"▁बड़े":5801,"▁সর্বাধিক":5802,"▁डॉल":5803,"▁Press.":5804,"▁যুগ":5805,"▁युग":5806,"డిప":5807,"▁পাঁচ":5808,"▁উত্তর-পূর্ব":5809,"বর্তী":5810,"▁মানুষ":5811,"▁संस्कृत":5812,"▁সম্পর্ক":5813,"জাতিক":5814,"▁अंग्रेजी":5815,"▁বিচার":5816,"▁आधुनिक":5817,"▁ऊँच":5818,"ন্ধু":5819,"शासित":5820,"ক্রান্ত":5821,"ాల్లో":5822,"▁శాస్త్ర":5823,"ृष्ट":5824,"సియా":5825,"▁পৃথিব":5826,"▁বিস্তার":5827,"▁शुरू":5828,"▁विस्तृत":5829,"গুলিতে":5830,"▁নির্বাচিত":5831,"▁অধিকাংশ":5832,"▁सहयोग":5833,"▁पर्वत":5834,"▁अलग":5835,"▁కాలంలో":5836,"▁ఆర్ధిక":5837,"▁এছাড়াও":5838,"▁సిని":5839,"▁শক্তি":5840,"▁बहुमत":5841,"▁উৎসব":5842,"पालिका":5843,"মহাদেশ":5844,"▁कर्ज":5845,"▁किन्तु":5846,"▁Society":5847,"▁व्याप":5848,"▁প্রযুক্তি":5849,"▁विदेशी":5850,"▁ఉత్తర":5851,"▁০-১৯-৫৬":5852,"▁সদস":5853,"▁अर्थव":5854,"▁సంగీ":5855,"▁Wildlife":5856,"▁ఏర్ప":5857,"▁సరిహద్ద":5858,"▁আঞ্চলিক":5859,"▁అత్యధిక":5860,"▁ইতিহাস":5861,"▁ఇండియా":5862,"▁डॉलर":5863,"▁পৃথিবীর":5864,"\",":5865,"-৩":5866,"-৬":5867,".৮":5868,"04%":5869,"200":5870,"62":5871,"cise":5872,"iple":5873,"mun":5874,"ंह":5875,"इन":5876,"जरा":5877,"डी":5878,"तः":5879,"तमान":5880,"पीय":5881,"फल":5882,"मह":5883,"रु":5884,"वी":5885,"वीं":5886,"शत":5887,"सित":5888,"हि":5889,"हास":5890,"ाई":5891,"ाह":5892,"ोढ़":5893,"ोसी":5894,"ोच्च":5895,"्स":5896,"এর":5897,"কৃত":5898,"খ্যার":5899,"টো":5900,"ঢ়":5901,"তু":5902,"তো":5903,"ধর":5904,"ন=":5905,"বই":5906,"বহ":5907,"বা":5908,"ভক্ত":5909,"ম,":5910,"সফ":5911,"িন্ন":5912,"িস্তান":5913,"েম":5914,"ৈধ":5915,"ৈচিত্র":5916,"্ট":5917,"১৭":5918,"৭%":5919,"৭১":5920,"ంధ":5921,"కొ":5922,"కాలు":5923,"గం":5924,"గి":5925,"ట్ల":5926,"ఢిల్ల":5927,"ణి":5928,"తా":5929,"తిక":5930,"తంత్ర":5931,"దం":5932,"ద్ర":5933,"దార":5934,"యో":5935,"రం":5936,"లకు":5937,"లను":5938,"ల్వ":5939,"సింది.":5940,"ీ;":5941,"ు.":5942,"ెల":5943,"ెంగ":5944,"▁ছ":5945,"▁৮":5946,"▁ছিল":5947,"▁टे":5948,"an,":5949,"araj":5950,"▁100":5951,"▁सी":5952,"▁सु":5953,"▁सू":5954,"্রাজ":5955,"▁मो":5956,"▁महा":5957,"▁Ab":5958,"▁সার":5959,"▁Col":5960,"্য,":5961,"্য।":5962,"্যান্ড":5963,"▁Br":5964,"▁পাল":5965,"▁পার্":5966,"ations,":5967,"ations.":5968,"▁বর্ষ":5969,"▁বায়ু":5970,"▁ব্রিটিশ":5971,"▁केवल":5972,"▁2,":5973,"▁29":5974,"▁भाजपा":5975,"▁(क":5976,"▁কারণ":5977,"▁పత":5978,"▁పూ":5979,"▁పో":5980,"▁अग":5981,"▁अब":5982,"▁अस":5983,"ems":5984,"ানে":5985,"ানীয়":5986,"▁অংশ":5987,"▁অভি":5988,"▁অক্ষর":5989,"▁অন্তর্":5990,"▁जै":5991,"▁निय":5992,"▁बै":5993,"▁बनी":5994,"র্শ":5995,"▁H.":5996,"▁Har":5997,"▁दिल":5998,"▁दृष्ट":5999,"▁হলে":6000,"यास":6001,"▁মে":6002,"▁মৌ":6003,"▁মাল":6004,"▁প্রজাত":6005,"▁দা":6006,"▁দৈ":6007,"▁సమా":6008,"▁సౌక":6009,"ubl":6010,"▁আদ":6011,"▁আধ":6012,"▁আন":6013,"▁আন্তর্":6014,"ালি":6015,"▁तो":6016,"▁प्रयास":6017,"▁নিক":6018,"▁নৃত্য":6019,"▁বিবে":6020,"▁বিবাহ":6021,"▁বিভক্ত":6022,"▁మన":6023,"▁మూడ":6024,"chived":6025,"▁জি":6026,"▁आया":6027,"▁आन्द":6028,"▁उद्योग":6029,"▁రహ":6030,"▁ले":6031,"▁2012":6032,"▁2014":6033,"ামিল":6034,"▁ప్రము":6035,"▁शिक":6036,"▁श्री":6037,"▁భారత్":6038,"▁विवाद":6039,"রেখ":6040,"▁Fact":6041,"न्न":6042,"▁যায়।":6043,"▁करता":6044,"▁32":6045,"▁2007":6046,"▁তৃত":6047,"▁তেল":6048,"तिहास":6049,"▁1951":6050,"▁একাধিক":6051,"▁2022":6052,"িলোমি":6053,"▁সমাজ":6054,"▁इसकी":6055,"▁समर्थ":6056,"▁समाप्त":6057,"▁1998":6058,"▁করেছে।":6059,"ঙ্ক":6060,"ৃতিতে":6061,"▁होते":6062,"▁অনেক":6063,"▁উপর":6064,"▁উপদ্বীপ":6065,"▁উপমহাদেশ":6066,"▁জন্য":6067,"▁চন্দ্র":6068,"▁বিশেষ":6069,"▁রূ":6070,"▁ఆధ":6071,"ంతో":6072,"▁খেলা":6073,"▁वर्ण":6074,"▁वर्तमान":6075,"এসবিন=":6076,"▁నడిప":6077,"▁బ్రి":6078,"▁బెంగ":6079,"▁1971":6080,"▁1974":6081,"▁1977":6082,"▁వివి":6083,"स्त्र":6084,"▁१९६":6085,"वायु":6086,"াগর":6087,"▁অবৈধ":6088,"০-এর":6089,"▁२०":6090,"▁हिन्दू":6091,"ांड":6092,"▁রাষ্ট্রপতি":6093,"▁సామ":6094,"্থান":6095,"▁|আই":6096,"▁স্বা":6097,"▁अधिकार":6098,"▁মহাক":6099,"▁প্রতিষ্ঠ":6100,"াইল":6101,"▁বৈচিত্র":6102,"▁বৈশিষ্ট":6103,"▁নামে":6104,"▁করুন":6105,"▁২০০৭":6106,"মাণবিক":6107,"▁কেন্দ্রশাস":6108,"म्ब":6109,"▁লোক":6110,"racy":6111,"▁ভাষায়":6112,"▁কোটি":6113,"ৃতি}}:":6114,"ాబా":6115,"▁সাম্রাজ":6116,"▁সাং":6117,"▁সাক্ষর":6118,"▁दिया।":6119,"▁নেতৃত":6120,"ద్ధి":6121,"▁రాష్ట్రపతి":6122,"▁শতাংশ।":6123,"ष्ठ":6124,"ष्ण":6125,"দেশের":6126,"▁{{বই":6127,"▁Archived":6128,"्रीका":6129,"▁बनाने":6130,"▁উৎপ":6131,"চ্চিত্র":6132,"▁প্যারামিটারে":6133,"▁अमरी":6134,"▁মান:":6135,"▁অনুস":6136,"বাসী":6137,"డ్డ":6138,"▁সিন্ধু":6139,"▁अंग्रेज़ी":6140,"-এর":6141,"िन्न":6142,"▁जलोढ़":6143,"▁जलवायु":6144,"▁এশিয়ার":6145,"▁Democracy":6146,"▁प्रतिशत":6147,"▁গঠন":6148,"▁অবস্থিত":6149,"▁ప్రాంతాలు":6150,"▁স্থাপত্য":6151,"पूर्ण":6152,"▁পুরুষ":6153,"▁अभी":6154,"द्योगिक":6155,"रोपीय":6156,"ব্যবস্থা":6157,"▁শতাব্দ":6158,"▁তারিখে":6159,"▁దేశంలోని":6160,"▁మొదల":6161,"▁আন্দোল":6162,"▁రెండు":6163,"▁विभिन्न":6164,"▁यूरोपीय":6165,"▁পর্যন্ত":6166,"▁পর্বতমালা":6167,"▁स्थापना":6168,"▁सर्वोच्च":6169,"▁পারমাণবিক":6170,"▁বাহিনী":6171,"▁పట్టణ":6172,"▁जबकि":6173,"▁जाना":6174,"▁উদ্ধৃতি}}:":6175,"▁आदि":6176,"▁लाख":6177,"▁যুক্তরাষ্ট্র":6178,"▁राजनीतिक":6179,"▁থাকে।":6180,"▁ইন্দো":6181,"ప్పటిక":6182,"▁বর্তমানে":6183,"▁ऋतु":6184,"▁पड़ोसी":6185,"▁পাকিস্তান":6186,"▁কৃষ":6187,"▁బహు":6188,"▁उत्पाद":6189,"▁अप्रैल":6190,"োর্ড":6191,"▁अफ्रीका":6192,"▁సింధ":6193,"▁गांधी":6194,"▁সংরক্ষণ":6195,"▁ইংরে":6196,"▁চলচ্চিত্র":6197,"▁व्यापार":6198,"▁अर्थव्यवस्था":6199,"▁প্রজাতন্ত্র":6200,"▁సౌకర్య":6201,"▁আন্তর্জাতিক":6202,"▁ప్రముఖ":6203,"▁Factbook":6204,"▁তৃতীয়":6205,"িলোমিটার":6206,"▁समर्थन":6207,"▁వివిధ":6208,"▁|আইএসবিন=":6209,"▁কেন্দ্রশাসিত":6210,"▁শতাব্দীর":6211,",51":6212,"-প":6213,"-ব":6214,"-স":6215,"01,":6216,"14%":6217,"21":6218,"22":6219,"30":6220,"500":6221,"63":6222,"67":6223,"96":6224,"BC":6225,"F)":6226,"Muslim":6227,"[ˈ":6228,"bʱ":6229,"cadem":6230,"hab":6231,"ier":6232,"lin":6233,"men":6234,"mrit":6235,"ner":6236,"na,":6237,"oh":6238,"rata":6239,"serv":6240,"t]":6241,"udi":6242,"y)":6243,"ət]":6244,"ɾət]":6245,"ία":6246,"ς),":6247,"ός),":6248,"ंजा":6249,"चना":6250,"ण,":6251,"तम":6252,"त्या":6253,"थी":6254,"दार":6255,"दारी":6256,"धार":6257,"नत":6258,"नै":6259,"पि":6260,"भाषा":6261,"मी":6262,"यन":6263,"र-":6264,"ल्त":6265,"लिम":6266,"वन":6267,"वास":6268,"वर्ष":6269,"सि":6270,"सून":6271,"ाट":6272,"िख":6273,"िरा":6274,"ीर":6275,"ुआ":6276,"ुष":6277,"ेट":6278,"ेल":6279,"ोव":6280,"ोटे":6281,"ौह":6282,"ौद्योगिक":6283,"्ञ":6284,"्‍":6285,"्ली":6286,"०,":6287,"४.":6288,"५०":6289,"কটি":6290,"খন":6291,"খণ্ড":6292,"গঠ":6293,"ঘল":6294,"ঘাট":6295,"চ্":6296,"চাল":6297,"জাতি":6298,"থাক":6299,"দান":6300,"দায়":6301,"নার":6302,"নিয়":6303,"নশীল":6304,"পাত":6305,"পূর্ণ":6306,"ময়":6307,"মোদ":6308,"রত":6309,"রি":6310,"শ্র":6311,"স,":6312,"াভ":6313,"িষ্ঠ":6314,"ুগ":6315,"ূচ":6316,"ৃক":6317,"েপি":6318,"োয়":6319,"োষ্ঠ":6320,"ৌগোল":6321,"্লি":6322,"২৩":6323,"৩৫":6324,"৬%":6325,"৭২":6326,"৯৭":6327,"గే":6328,"గలు":6329,"చే":6330,"టీ":6331,"తాబ్":6332,"థిక":6333,"దర":6334,"భి":6335,"మ్య":6336,"మంత":6337,"మిళ":6338,"లతో":6339,"ళ్ల":6340,"వడ":6341,"వల":6342,"వు":6343,"వే":6344,"వత్":6345,"వచ్చ":6346,"షు":6347,"స్య":6348,"ాన్ని":6349,"ీప":6350,"ీర్ణ":6351,"ూప":6352,"▁%":6353,"▁Ś":6354,"▁ऐ":6355,"▁ढ":6356,"▁६":6357,"▁০":6358,"▁৭":6359,"▁ఐ":6360,"▁ఖ":6361,"▁তি":6362,"▁লি":6363,"▁గా":6364,"▁লেখ":6365,"▁[ˈ":6366,"ind":6367,"ony":6368,"er's":6369,"enn":6370,"al,":6371,"▁crow":6372,"it,":6373,"aran":6374,"esh":6375,"▁किस":6376,"▁किये":6377,"▁कृष":6378,"isher":6379,"inger":6380,"asa":6381,"▁India।":6382,"▁14":6383,"ারেশন":6384,"▁सल्त":6385,"urt":6386,"্রমে":6387,"্রতিক":6388,"্রদায়":6389,"য়ের":6390,"▁मौ":6391,"▁मूल":6392,"▁Academ":6393,"▁Amrit":6394,"ila":6395,"▁हिस":6396,"▁Cal":6397,"▁पहु":6398,"▁पंजा":6399,"্যে":6400,"▁BBC":6401,"▁পো":6402,"▁Since":6403,"▁বস":6404,"▁2nd":6405,"▁(W":6406,"▁(ম":6407,"▁(edi":6408,"ada":6409,"▁Press":6410,"▁Public":6411,"▁Mit":6412,"▁Mar":6413,"▁Mach":6414,"▁কম":6415,"▁কিলোমিটার":6416,"्याद":6417,"▁పద్ధ":6418,"▁పండు":6419,"▁अलावा":6420,"ema,":6421,"empor":6422,"ters":6423,"▁অর্":6424,"▁जून":6425,"▁जहाँ":6426,"▁नव":6427,"▁नी":6428,"▁बौ":6429,"▁बंग":6430,"▁वा":6431,"▁वै":6432,"▁वीं":6433,"িক্ষ":6434,"▁Dic":6435,"▁Gold":6436,"▁হন।":6437,"▁হকি":6438,"▁মতো":6439,"ayback":6440,"▁প্রত্য":6441,"▁প্রভাব":6442,"▁দিক":6443,"▁సమ":6444,"▁సు":6445,"▁సార":6446,"▁సర్వ":6447,"▁আস":6448,"ালত":6449,"ালু":6450,"li,":6451,"▁तट":6452,"▁प्रत्य":6453,"▁प्रशास":6454,"▁प्रचल":6455,"▁प्रौद्योगिक":6456,"▁নদী":6457,"el,":6458,"▁వల":6459,"▁వర్":6460,"▁వాత":6461,"▁বিষ":6462,"▁বিলিয়ন":6463,"▁Wayback":6464,"▁భూ":6465,"ाजिक":6466,"ching":6467,"ियां":6468,"ক্ষে":6469,"ক্ষেত্র":6470,"▁गई":6471,"▁गई।":6472,"▁Rom":6473,"▁জৈ":6474,"▁आज":6475,"ాలకు":6476,"ాలతో":6477,"▁उभ":6478,"▁उच्च":6479,"▁రో":6480,"స్వా":6481,"▁2019":6482,"ামা":6483,"▁Joh":6484,"▁শ্র":6485,"▁শুরু":6486,"▁इतिहास":6487,"▁शांति":6488,"▁पर्य":6489,"▁అను":6490,"▁అభి":6491,"▁कोई":6492,"▁एव":6493,"▁From":6494,"▁গড়ে":6495,"াবা":6496,"াবাদ":6497,"न्ध":6498,"লিউড":6499,"గా,":6500,"▁30,000":6501,"বিভাগ":6502,"▁রাম":6503,"▁2004":6504,"▁2007,":6505,"▁2006,":6506,"नेक":6507,"नेमा":6508,"▁তামিল":6509,"rown":6510,"▁\"In":6511,"▁Long":6512,"▁Lib":6513,"stitutional":6514,"▁7000":6515,"▁74.":6516,"▁72.":6517,"▁7,51":6518,"क्षर":6519,"▁चल":6520,"▁चला":6521,"▁সংস্থ":6522,"▁সংগ্রহ":6523,"▁राजधान":6524,"▁राजनै":6525,"ास्त":6526,"▁జాబ":6527,"▁4th":6528,"ralian":6529,"ాయి":6530,"▁1967":6531,"्टा":6532,"ాతంత్ర":6533,"▁2021":6534,"▁చరి":6535,"▁చైన":6536,"▁1990":6537,"▁ইন্ড":6538,"ustralian":6539,"ধ্যমে":6540,"ধ্যুষ":6541,"▁१८":6542,"నుక":6543,"▁Anand":6544,"▁Conserv":6545,"▁अन्तर":6546,"▁भील":6547,"▁নির":6548,"▁নিয়":6549,"্প্রতিক":6550,"ించే":6551,"িয়া":6552,"्यात":6553,"▁निर्":6554,"▁চার":6555,"▁চতু":6556,"দ্ধির":6557,"স্ত্র":6558,"▁ফে":6559,"स्लिम":6560,"▁খাত":6561,"▁খেল":6562,"▁తన":6563,"▁తమిళ":6564,"▁किया,":6565,"ंत्रिक":6566,"▁600":6567,"▁1984":6568,"▁నే":6569,"▁నగర":6570,"লা,":6571,"▁దా":6572,"ृतिक":6573,"ముద్ర":6574,"▁9,000":6575,"ার্সি":6576,"▁1975,":6577,"▁విశ":6578,"ood,":6579,"▁సంఖ్య":6580,"▁उत्त":6581,"▁जनवरी":6582,"▁পরিষে":6583,"▁পরিচাল":6584,"▁अपना":6585,"▁सरकारें":6586,"ితా":6587,"▁శతాబ్":6588,"▁जिसका":6589,"anuj":6590,"▁सामाजिक":6591,"–200":6592,"▁भाषाएँ":6593,"▁हिन्दु":6594,"3.8":6595,"সেম্বর":6596,"▁17.":6597,"3,42":6598,"▁फ्र":6599,"ুনিক":6600,"▁Act,":6601,"▁See":6602,"▁বৈদেশ":6603,"▁కూడిన":6604,"త్తం":6605,"▁Tamil,":6606,"▁ব্যবস্থ":6607,"▁ব্যবস্থা":6608,"▁पूर्वी":6609,"যোগিত":6610,"▁কোম্প":6611,"▁কোনও":6612,"▁অঞ্চলের":6613,"▁రైల్వ":6614,"▁हुई।":6615,"8.7":6616,"গত।":6617,"▁ট্র":6618,"▁నిర్వ":6619,"▁সাম্প্রতিক":6620,"▁మొత్తం":6621,"ध्यम":6622,"ভূত":6623,"াটক":6624,"▁सिंह":6625,"▁सिनेमा":6626,"▁माना":6627,"▁मानसून":6628,"▁పేర్":6629,"স্কৃতিক":6630,"ুপ্ত":6631,"▁बढ़कर":6632,"▁দ্বীপ":6633,"▁उपमह":6634,"▁భారతదేశానికి":6635,"▁छोड़":6636,"▁ক্রয়":6637,"▁দুটি":6638,"ুত্ব":6639,"▁मिलियन":6640,"▁संघर्ष":6641,"▁১৯৯১":6642,"▁ఒకటి":6643,"▁अमेर":6644,"▁অনুমোদ":6645,"▁जीत":6646,"▁विकसित":6647,"▁స్వాతంత్ర":6648,"▁বিচারে":6649,"▁आधार":6650,"▁জনসংখ্যার":6651,"edia":6652,"▁కోర్":6653,"ন্ধন":6654,"▁গঠিত":6655,"▁অবস্থিত।":6656,"▁देखा":6657,"▁भूमि":6658,"▁అధికారిక":6659,"রোপ":6660,"ట్లు":6661,"ridge":6662,"▁पुर्त":6663,"▁बाहरी":6664,"▁মাধ্যমে":6665,"▁মুঘল":6666,"ক্ষমতা":6667,"▁गुप्त":6668,"▁ప్రపంచంలో":6669,"▁माध्यम":6670,"▁পুরস্কার":6671,"▁अभिया":6672,"▁शुरुआ":6673,"▁विस्तार":6674,"▁చేయ":6675,"రణం":6676,"▁(Ἰνδία":6677,"▁(Ἰνδός),":6678,"▁పరిశ":6679,"▁দ্রুত":6680,"▁ప్రజా":6681,"▁संगीत":6682,"▁మొదటి":6683,"পেক্ষ":6684,"▁Ramanuj":6685,"▁গাঢ়":6686,"aːɾət]":6687,"covery":6688,"▁నుండి":6689,"▁ঐতিহ্য":6690,"▁16.6%":6691,"▁Discovery":6692,"▁लोगों":6693,"▁Chandra":6694,"▁তথ্য":6695,"▁జరిగిన":6696,"▁১৯৫০":6697,"▁निभाई":6698,"▁थे।":6699,"▁ক্ষমতায়":6700,"ंबे":6701,"पेक्ष":6702,"সলমান":6703,"্ঞান":6704,"▁অক্সফ":6705,"▁नदियाँ":6706,"▁দিয়ে":6707,"▁इंडिया":6708,"▁అనేక":6709,"▁ఎక్కువగా":6710,"▁প্রধানমন্ত্রী":6711,"▁घोषणा":6712,"▁కాంగ్రెసు":6713,"▁প্রচলিত":6714,"ావరణం":6715,"▁कहते":6716,"▁বুদ্ধ":6717,"▁কর্তৃক":6718,"▁వెబ":6719,"▁জলবায়ু":6720,"▁उसके":6721,"▁ప్రస్తుతం":6722,"▁ধ্রুপদি":6723,"▁ప్రాచీన":6724,"▁ডিসেম্বর":6725,"దారులు,":6726,"▁পার্টি":6727,"▁অন্তর্গত।":6728,"▁दिल्ली":6729,"▁दृष्टि":6730,"ublisher":6731,"▁আদালত":6732,"▁आन्दोलन":6733,"▁నడిపించ":6734,"▁२०१":6735,"▁বৈশিষ্ট্য":6736,"▁সাক্ষরতার":6737,"▁নেতৃত্বে":6738,"▁পুরুষদের":6739,"▁ইংরেজি":6740,"bʱaːɾət]":6741,"ৌগোলিক":6742,"▁[ˈbʱaːɾət]":6743,"▁सल्तनत":6744,"▁पहुँच":6745,"▁पंजाब":6746,"▁(editor":6747,"्यादा":6748,"emporary":6749,"▁వాతావరణం":6750,"▁\"India":6751,"▁Libr":6752,"▁74.04%":6753,"▁7,517":6754,"▁সংগ্রহের":6755,"▁राजधानी":6756,"▁राजनैतिक":6757,"▁జాబితా":6758,"▁చరిత్ర":6759,"ধ্যুষিত":6760,"▁বৈদেশিক":6761,"▁రైల్వే":6762,"▁నిర్వహ":6763,"▁उपमहाद्वीप":6764,"▁अमेरिका":6765,"▁पुर्तग":6766,"▁অক্সফোর্ড":6767,"\"b":6768,"%)":6769,"')":6770,"'.":6771,"'E":6772,"'í":6773,",\"":6774,",৬":6775,",42":6776,"-B":6777,"-D":6778,"-T":6779,"-h":6780,"-n":6781,"-प":6782,"-আ":6783,"-০":6784,"-৪":6785,"-৭":6786,"-re":6787,"-or":6788,"-ri":6789,"-ter":6790,"-der":6791,"-li":6792,"-el":6793,"-we":6794,"-sh":6795,"-urban":6796,"-ex":6797,"-pl":6798,"-own":6799,"-ins":6800,"-work":6801,"-pro":6802,"-inc":6803,"-cast":6804,"-reg":6805,"-operation":6806,"-ভারত":6807,"-east":6808,"-sel":6809,"-century":6810,".,":6811,".1":6812,".3":6813,".३":6814,".১":6815,".২":6816,".৪":6817,".0%":6818,".2%":6819,".৬%":6820,"06.":6821,"0–19":6822,"094":6823,"11":6824,"1st":6825,"1).":6826,"1–200":6827,"23":6828,"25":6829,"2),":6830,"2%.":6831,"264":6832,"24.4":6833,"32":6834,"3–":6835,"30.":6836,"351":6837,"48":6838,"4′":6839,"46%":6840,"4).":6841,"4–201":6842,"5;":6843,"5°":6844,"54%":6845,"65":6846,"64%":6847,"60%":6848,"601,":6849,"663":6850,"75":6851,"7°":6852,"700":6853,"731":6854,"8°":6855,"85.":6856,"81%":6857,"91,":6858,"91%":6859,"=-এ":6860,"Al":6861,"Ara":6862,"Aph":6863,"Bh":6864,"CN":6865,"GDP":6866,"Green":6867,"Isl":6868,"Kad":6869,"Min":6870,"Map":6871,"NA":6872,"NDA":6873,"PP":6874,"Pol":6875,"Pub":6876,"Pakistan":6877,"St":6878,"UCN":6879,"[ɦ":6880,"ao":6881,"az":6882,"aṅ":6883,"a—":6884,"aul":6885,"aus":6886,"aid":6887,"aud":6888,"aiv":6889,"aff":6890,"augh":6891,"ao,":6892,"adic":6893,"aute":6894,"ba":6895,"by":6896,"bon":6897,"band":6898,"bic":6899,"bec":6900,"bro":6901,"bate":6902,"bli":6903,"bade":6904,"bled":6905,"bility":6906,"bined":6907,"bhā":6908,"bra.":6909,"bally.":6910,"co":6911,"cre":6912,"cur":6913,"col":6914,"cul":6915,"cation":6916,"cut":6917,"ces,":6918,"curing":6919,"culture":6920,"colog":6921,"clo":6922,"cked":6923,"cook":6924,"cute":6925,"cines":6926,"claiming":6927,"da":6928,"das":6929,"dent":6930,"dra":6931,"dus":6932,"de,":6933,"dates":6934,"dled":6935,"dministr":6936,"dden":6937,"desh":6938,"e;":6939,"e—":6940,"een":6941,"eed":6942,"eing":6943,"eur":6944,"eum":6945,"eud":6946,"eav":6947,"ees.":6948,"eep":6949,"eace":6950,"eking":6951,"ees)":6952,"f.":6953,"fl":6954,"fen":6955,"fol":6956,"ful":6957,"fast":6958,"fts":6959,"fall":6960,"fted":6961,"fess":6962,"fices":6963,"gar":6964,"gation":6965,"gid":6966,"gment":6967,"gence":6968,"gener":6969,"gust":6970,"graph":6971,"gative":6972,"gredi":6973,"greg":6974,"gic,":6975,"ground":6976,"gala,":6977,"gressive":6978,"ha":6979,"hl":6980,"hâ":6981,"hic":6982,"hou":6983,"hil":6984,"hol":6985,"ham":6986,"hich":6987,"has,":6988,"hood":6989,"hyth":6990,"hary,":6991,"haps":6992,"hgala,":6993,"i.":6994,"io":6995,"iand":6996,"iec":6997,"iver":6998,"ira":6999,"iation":7000,"ia,":7001,"ii,":7002,"iber":7003,"ipp":7004,"ihi":7005,"ivers":7006,"io-":7007,"iens":7008,"ief":7009,"i-d":7010,"iers":7011,"ira,":7012,"iature":7013,"i-g":7014,"ible":7015,"ience.":7016,"iii)":7017,"idified":7018,"iri,":7019,"ji":7020,"jam":7021,"jour":7022,"jav":7023,"join":7024,"jured":7025,"k;":7026,"ke":7027,"kent":7028,"ks,":7029,"kut":7030,"kim":7031,"kir":7032,"kies":7033,"khar":7034,"kara":7035,"kani":7036,"kata,":7037,"ksha":7038,"lon":7039,"ler":7040,"lit":7041,"lar":7042,"lor":7043,"las":7044,"lig":7045,"lid":7046,"lac":7047,"lated":7048,"les,":7049,"ligh":7050,"liter":7051,"less":7052,"lped":7053,"lating":7054,"laving":7055,"lung":7056,"laced":7057,"laps":7058,"lila":7059,"mm":7060,"mo":7061,"ms":7062,"mā":7063,"man":7064,"mic":7065,"mast":7066,"mop":7067,"mod":7068,"minister":7069,"mond":7070,"most":7071,"metic":7072,"mense":7073,"mmediately":7074,"mada":7075,"n]":7076,"nat":7077,"nam":7078,"nut":7079,"nop":7080,"not":7081,"national":7082,"no-":7083,"nas,":7084,"nam,":7085,"nions,":7086,"nai,":7087,"ners.":7088,"ncre":7089,"nees.":7090,"oo":7091,"ov":7092,"ox":7093,"oat":7094,"oic":7095,"oist":7096,"oet":7097,"oast":7098,"os.":7099,"oi,":7100,"ooth":7101,"odic":7102,"oals":7103,"official":7104,"p=":7105,"pr":7106,"pan":7107,"pre":7108,"par":7109,"pure":7110,"pli":7111,"pect":7112,"pire":7113,"power":7114,"pren":7115,"pared":7116,"post":7117,"posed":7118,"panding":7119,"present":7120,"position":7121,"pressed":7122,"publisher":7123,"rin":7124,"rion":7125,"ring":7126,"ril":7127,"ruc":7128,"rup":7129,"rish":7130,"ring,":7131,"roup":7132,"ranged":7133,"rupt":7134,"rance,":7135,"rgar":7136,"s\"":7137,"sar":7138,"sive":7139,"sence":7140,"such":7141,"shi":7142,"site":7143,"sions":7144,"sar,":7145,"sue":7146,"sched":7147,"s—w":7148,"sine,":7149,"sche":7150,"scription":7151,"smen":7152,"skir":7153,"t.":7154,"ti":7155,"to":7156,"tan":7157,"tra":7158,"tation":7159,"tro":7160,"tment":7161,"tial":7162,"tive":7163,"ta,":7164,"ti,":7165,"tection":7166,"tas,":7167,"ties.":7168,"tances":7169,"tains":7170,"ti-":7171,"tropical":7172,"tre.":7173,"tivity":7174,"tling":7175,"tally.":7176,"t-h":7177,"u;":7178,"ux":7179,"uth":7180,"ument":7181,"uff":7182,"uistic":7183,"ugu":7184,"uaries":7185,"ukh":7186,"uidel":7187,"ugust":7188,"vis":7189,"vir":7190,"vate":7191,"vial":7192,"vant":7193,"vall":7194,"vine":7195,"ves.":7196,"vals":7197,"vara":7198,"vail":7199,"vanag":7200,"vati.":7201,"wing":7202,"went":7203,"western":7204,"wide":7205,"wice":7206,"wstr":7207,"wanted":7208,"where":7209,"weri":7210,"wala,":7211,"wati.":7212,"xic":7213,"xisting":7214,"yā":7215,"yī":7216,"yst":7217,"yed":7218,"yder":7219,"yond":7220,"yam,":7221,"ypical":7222,"yjam":7223,"ylon":7224,"zadi":7225,"Ön":7226,"á'í":7227,"āṇ":7228,"ādh":7229,"āham":7230,"āmā":7231,"ūtr":7232,"ɪnd":7233,"ʊˈ":7234,"ंट":7235,"ंत":7236,"ंका":7237,"ई,":7238,"क्ट":7239,"चे":7240,"च्":7241,"चार":7242,"जट":7243,"टक":7244,"टल":7245,"णाली":7246,"बी":7247,"बो":7248,"भु":7249,"यक":7250,"ये":7251,"रह":7252,"रि":7253,"लंका":7254,"व,":7255,"वे":7256,"श्म":7257,"शाली":7258,"शेष":7259,"सत":7260,"सू":7261,"हों":7262,"ात":7263,"ाओं":7264,"िप":7265,"िश":7266,"ीक्ष":7267,"ीकरण":7268,"ुट":7269,"ुष्":7270,"ूत":7271,"ेज":7272,"ेक्षा":7273,"ॉकी":7274,"ौसेना":7275,"४०":7276,"४७":7277,"এল":7278,"কু":7279,"ট,":7280,"টাল":7281,"ঠে":7282,"ঠে।":7283,"ত্ব":7284,"ত্থান":7285,"দ্য":7286,"দর্শ":7287,"ধা":7288,"নক":7289,"নাত":7290,"পুর":7291,"ফ্রিক":7292,"ফি,":7293,"বস":7294,"ভে":7295,"ভৃতি":7296,"ভকৃত":7297,"মব":7298,"মু":7299,"মিক":7300,"মাত্র":7301,"র,":7302,"লী":7303,"লাদেশ":7304,"শৈ":7305,"শাক":7306,"ষণ":7307,"ীক":7308,"ীণ":7309,"ুয়":7310,"ুমান":7311,"ে,":7312,"েয়ে":7313,"োহ":7314,"১০":7315,"২৮":7316,"২৯":7317,"৩৩":7318,"৪১":7319,"৪৭":7320,"৫২১":7321,"৬২":7322,"৬৬":7323,"৯৩":7324,"కి":7325,"కారం":7326,"ఖండ":7327,"గో":7328,"గంగా":7329,"టం":7330,"డే":7331,"ణంగా":7332,"తులు":7333,"దన":7334,"ద్య":7335,"పూ":7336,"ప్రదాయ":7337,"ఫ్":7338,"మన":7339,"మె":7340,"మై":7341,"మ్మ":7342,"రత":7343,"రాలు":7344,"లే":7345,"వృ":7346,"వర్":7347,"వి.":7348,"శ్చ":7349,"సై":7350,"సత్వ":7351,"హార":7352,"ాఖ":7353,"ాప":7354,"ామ":7355,"ిప":7356,"ిస్థ":7357,"ూచ":7358,"ెహ":7359,"ెట్":7360,"ైగా":7361,"ోర":7362,"ṇa,":7363,"ṣṭ":7364,"–400":7365,"–60%":7366,"–Ara":7367,"–Kad":7368,"–Pakistan":7369,"—am":7370,"—ex":7371,"—passing":7372,"—cover":7373,"—sol":7374,"—bec":7375,"—cook":7376,"—dates":7377,"—not":7378,"—such":7379,"—to":7380,"▁)":7381,"▁झ":7382,"▁३":7383,"▁८":7384,"▁ఘ":7385,"▁ఫ":7386,"▁‘":7387,"▁ic":7388,"▁il":7389,"▁ver":7390,"▁id":7391,"▁ub":7392,"▁),":7393,"▁ens":7394,"▁eng":7395,"▁ident":7396,"▁ఢిల్ల":7397,"▁Ön":7398,"▁tre":7399,"▁tri":7400,"▁tuc":7401,"▁ties":7402,"▁tang":7403,"▁tect":7404,"▁treat":7405,"▁trough":7406,"▁tabl":7407,"▁tied":7408,"▁tight":7409,"▁teak":7410,"▁tons":7411,"▁trial":7412,"▁tiger":7413,"▁trigonomet":7414,"▁typically":7415,"▁taugh":7416,"▁twice":7417,"▁typical":7418,"an.":7419,"an;":7420,"andi":7421,"anar":7422,"anam":7423,"ans,":7424,"anad":7425,"anim":7426,"anct":7427,"anistan":7428,"anism,":7429,"anked":7430,"anjav":7431,"anmo":7432,"anweri":7433,"hes.":7434,"hether":7435,"hes;":7436,"inal":7437,"inet":7438,"ins.":7439,"inate":7440,"inces":7441,"ines.":7442,"inite":7443,"inade":7444,"inations":7445,"ined,":7446,"inks":7447,"inaries":7448,"in-pro":7449,"infall":7450,"ini.":7451,"▁theor":7452,"▁theore":7453,"ons.":7454,"onour":7455,"onisation":7456,"one.":7457,"onists":7458,"onia":7459,"ongest":7460,"onmental":7461,"onkani":7462,"ontally.":7463,"er.":7464,"ero":7465,"erve":7466,"erations":7467,"eration,":7468,"erving":7469,"eria":7470,"ergy":7471,"erences":7472,"rest":7473,"reed":7474,"rely":7475,"res,":7476,"reet":7477,"reate":7478,"rehen":7479,"reland":7480,"remental":7481,"repren":7482,"▁adi":7483,"▁aro":7484,"▁ach":7485,"▁act":7486,"▁aven":7487,"▁astr":7488,"▁amb":7489,"▁ahead":7490,"▁acute":7491,"▁auth":7492,"▁oro":7493,"▁oper":7494,"▁oven":7495,"▁ocean":7496,"ster":7497,"sting":7498,"stment":7499,"sted,":7500,"staː":7501,"stead":7502,"stream":7503,"endi":7504,"ening":7505,"ens.":7506,"enistic":7507,"ening.":7508,"alo":7509,"alite":7510,"alised":7511,"alue":7512,"alam,":7513,"alms":7514,"di,":7515,"dial":7516,"diers,":7517,"divas":7518,"disha":7519,"dives.":7520,"aten":7521,"atis":7522,"atur":7523,"atist":7524,"atab":7525,"atak":7526,"atant":7527,"athem":7528,"aters":7529,"athes":7530,"athan":7531,"atpur":7532,"atriya,":7533,"▁I,":7534,"▁I.":7535,"▁IT":7536,"▁Imp":7537,"▁Iran":7538,"▁IUCN":7539,"▁Ident":7540,"▁Immediately":7541,"▁Ireland":7542,"anded":7543,"anda,":7544,"andmast":7545,"▁cas":7546,"▁cra":7547,"▁cig":7548,"▁cres":7549,"▁cab":7550,"▁cum":7551,"▁city":7552,"▁cak":7553,"▁cli":7554,"▁call":7555,"▁cited":7556,"▁card":7557,"▁croc":7558,"▁city,":7559,"▁camp":7560,"▁cott":7561,"▁cricket":7562,"▁caval":7563,"▁cropp":7564,"▁cuff":7565,"▁create":7566,"edals":7567,"edabad":7568,"eda—":7569,"it.":7570,"itar":7571,"its,":7572,"itim":7573,"itter":7574,"itated":7575,"itous":7576,"itage":7577,"ities,":7578,"ities.":7579,"itual":7580,"ittle":7581,"itched":7582,"ar.":7583,"arp":7584,"art":7585,"aras":7586,"ars,":7587,"arter":7588,"arated":7589,"arting":7590,"arket":7591,"arhi,":7592,"arla":7593,"arcation":7594,"arji":7595,"arless":7596,"arāham":7597,"▁Indust":7598,"▁Intell":7599,"▁Instead":7600,"▁wil":7601,"▁wra":7602,"▁will":7603,"▁wage":7604,"▁wild":7605,"▁walled":7606,"▁wai":7607,"▁wanted":7608,"▁where":7609,"▁wedd":7610,"▁widespread":7611,"▁wood,":7612,"▁waters":7613,"▁in,":7614,"▁in.":7615,"▁inve":7616,"▁indic":7617,"▁internal":7618,"▁inval":7619,"▁invention":7620,"▁insur":7621,"▁ingest":7622,"▁invasive":7623,"▁ingredi":7624,"▁inscription":7625,"▁sal":7626,"▁sol":7627,"▁sus":7628,"▁sem":7629,"▁sher":7630,"▁sac":7631,"▁same":7632,"▁sap":7633,"▁sine":7634,"▁side":7635,"▁sust":7636,"▁slowing":7637,"▁southeast":7638,"▁sales":7639,"▁sites,":7640,"▁sung":7641,"▁sandy":7642,"▁sari,":7643,"▁sidel":7644,"▁sought":7645,"▁sources":7646,"▁saute":7647,"▁slid":7648,"▁sanct":7649,"▁sitar":7650,"or,":7651,"or=":7652,"oration":7653,"orad":7654,"orse":7655,"orism":7656,"orally":7657,"oration,":7658,"oriz":7659,"orities":7660,"orarji":7661,"ioned":7662,"ions.":7663,"ionals,":7664,"▁bes":7665,"▁bur":7666,"▁big":7667,"▁bak":7668,"▁bust":7669,"▁blowing":7670,"▁bird":7671,"▁bodi":7672,"▁borne":7673,"▁bitter":7674,"▁pul":7675,"▁pac":7676,"▁pay":7677,"▁pill":7678,"▁piv":7679,"▁pav":7680,"▁pap":7681,"▁pree":7682,"▁pron":7683,"▁panc":7684,"▁pants":7685,"▁poss":7686,"▁pran":7687,"▁poul":7688,"▁panch":7689,"▁puls":7690,"▁post-":7691,"▁pants,":7692,"▁paid":7693,"▁piec":7694,"▁poet":7695,"▁pyjam":7696,"es\"":7697,"es;":7698,"ese":7699,"esi":7700,"esans":7701,"eserv":7702,"iced":7703,"ics,":7704,"icus":7705,"ics.":7706,"icide":7707,"icially":7708,"iches":7709,"▁ming":7710,"▁ment":7711,"▁mort":7712,"▁mud":7713,"▁mant":7714,"▁mel":7715,"▁moun":7716,"▁mass":7717,"▁must":7718,"▁might":7719,"▁miss":7720,"▁meter":7721,"▁myst":7722,"▁medals":7723,"▁morally":7724,"▁ful":7725,"▁fle":7726,"▁fut":7727,"▁fun":7728,"▁foc":7729,"▁fel":7730,"▁foun":7731,"▁fend":7732,"▁few":7733,"▁fine":7734,"▁fell":7735,"▁free":7736,"▁flowing":7737,"▁fix":7738,"▁foss":7739,"▁fables,":7740,"▁faith":7741,"▁fie":7742,"▁filled":7743,"▁fought":7744,"▁feud":7745,"▁final":7746,"▁freed":7747,"▁किए":7748,"▁कश्म":7749,"is)":7750,"isi":7751,"isis":7752,"isak":7753,"isks":7754,"isively":7755,"ingent":7756,"ingly":7757,"inga,":7758,"ingual":7759,"as:":7760,"asing":7761,"asim":7762,"ascent":7763,"asants":7764,"asis.":7765,"asured":7766,"askara":7767,"aslila":7768,"asaras":7769,"ent)":7770,"ents":7771,"ental":7772,"ented":7773,"entil":7774,"entry":7775,"entred":7776,"entments":7777,"enth-largest":7778,"▁list":7779,"▁lop":7780,"▁lear":7781,"▁line":7782,"▁lately":7783,"▁lack":7784,"▁lost":7785,"▁lived":7786,"▁lying":7787,"▁lines":7788,"▁losing":7789,"▁lux":7790,"▁links":7791,"▁longest":7792,"▁little":7793,"▁lentil":7794,"omo":7795,"omic":7796,"omot":7797,"omes,":7798,"ommend":7799,"ompassing":7800,"omadic":7801,"omerations":7802,"▁India;":7803,"▁India–Pakistan":7804,"▁ele":7805,"▁emer":7806,"▁eigh":7807,"▁ety":7808,"▁emit":7809,"▁each":7810,"▁emiss":7811,"▁emission":7812,"▁evidence":7813,"▁ecolog":7814,"▁eaten":7815,"ous,":7816,"oured":7817,"oubled":7818,"▁toad":7819,"▁toward":7820,"▁toler":7821,"▁1st":7822,"▁10,":7823,"▁15,":7824,"▁15.":7825,"▁14%":7826,"▁13.":7827,"▁1%.":7828,"▁14.":7829,"▁11%":7830,"▁140":7831,"ার্য":7832,"▁सश":7833,"▁सहा":7834,"▁सफल":7835,"▁सोव":7836,"▁Tra":7837,"▁Tro":7838,"▁Tow":7839,"▁Tel":7840,"▁Tod":7841,"▁Tap":7842,"▁Tech":7843,"▁Tai":7844,"▁T20":7845,"▁Tash":7846,"▁Teth":7847,"▁Tiger":7848,"▁Trigonomet":7849,"lying":7850,"lymp":7851,"lywo":7852,"ly-d":7853,"▁ham":7854,"▁hoc":7855,"▁hour":7856,"▁home":7857,"▁hood":7858,"▁hund":7859,"▁hold":7860,"▁harsh":7861,"▁honour":7862,"▁horiz":7863,"▁homes,":7864,"▁dur":7865,"▁dol":7866,"▁det":7867,"▁date":7868,"▁day":7869,"▁del":7870,"▁dress":7871,"▁dry":7872,"▁dates":7873,"▁dens":7874,"▁drough":7875,"▁daw":7876,"▁danc":7877,"▁dai":7878,"▁data":7879,"▁dry,":7880,"▁dining":7881,"▁deter":7882,"▁dances,":7883,"▁done":7884,"▁data,":7885,"▁dropp":7886,"▁dosa,":7887,"▁despite":7888,"▁doubled":7889,"urally":7890,"uru,":7891,"uriant":7892,"urgence":7893,"ursions":7894,"ecog":7895,"ecific":7896,"▁reve":7897,"▁remit":7898,"▁reach":7899,"▁relied":7900,"▁reject":7901,"▁reorgan":7902,"▁rehab":7903,"▁re-el":7904,"▁realms":7905,"▁nor":7906,"▁noun":7907,"▁norm":7908,"▁native":7909,"▁naval":7910,"▁napp":7911,"▁nascent":7912,"▁nomadic":7913,"▁gir":7914,"▁gill":7915,"▁gap":7916,"▁ghar":7917,"▁gives":7918,"▁gross":7919,"▁gold":7920,"▁grid":7921,"▁giant":7922,"▁ginger":7923,"▁glac":7924,"▁goals":7925,"▁guidel":7926,"▁gentry":7927,"▁मी":7928,"▁मौर":7929,"▁Aver":7930,"▁Ary":7931,"▁App":7932,"▁Ahm":7933,"▁Atal":7934,"▁Across":7935,"▁Amar":7936,"▁Administr":7937,"▁August":7938,"▁Azadi":7939,"▁Aṣṭ":7940,"▁Adivas":7941,"ils":7942,"iled":7943,"iles":7944,"ili,":7945,"ilingual":7946,"th.":7947,"▁हर":7948,"▁हस्त":7949,"▁हॉकी":7950,"ver,\"":7951,"▁সফ":7952,"▁স্ত":7953,"▁সুপ":7954,"▁সকল":7955,"▁সভ্য":7956,"▁Cong":7957,"▁Cher":7958,"▁Crit":7959,"▁Cap":7960,"▁Cens":7961,"▁Chen":7962,"▁Credi":7963,"▁Cold":7964,"▁Cuis":7965,"▁Crown":7966,"▁Coast":7967,"▁Canad":7968,"▁Centred":7969,"olith":7970,"oli,":7971,"olution":7972,"olished":7973,"olls":7974,"olkata,":7975,"olonisation":7976,"olars,":7977,"ollywo":7978,"ul,":7979,"ula":7980,"ule":7981,"ully":7982,"ulation":7983,"ulated":7984,"ule,":7985,"ulating":7986,"ulaic":7987,"ulner":7988,"ulba":7989,"ulgation":7990,"ri;":7991,"ried":7992,"riage":7993,"riff":7994,"rived":7995,"ries.":7996,"rimary":7997,"rifices":7998,"rike":7999,"river,\"":8000,"▁पी":8001,"্যাল":8002,"्रिय":8003,"ray":8004,"rain":8005,"rach":8006,"radually":8007,"rastruc":8008,"radesh":8009,"raits,":8010,"▁But":8011,"▁Bab":8012,"▁Bod":8013,"▁Both":8014,"▁Bound":8015,"▁Bef":8016,"▁Book":8017,"▁Boulder":8018,"▁Bedd":8019,"▁Based":8020,"▁Bakh":8021,"▁Bollywo":8022,"ation.":8023,"▁Sang":8024,"▁Sup":8025,"▁Sch":8026,"▁Sport":8027,"▁Sign":8028,"▁Sange":8029,"▁Sund":8030,"▁Sched":8031,"▁Sanch":8032,"▁Sindh":8033,"▁Settled":8034,"▁Sind":8035,"▁Srin":8036,"▁Sūtr":8037,"▁Sanam":8038,"▁Sonia":8039,"▁Satpur":8040,"▁বো":8041,"▁বাম":8042,"▁বেশ":8043,"▁বঙ্গ":8044,"▁বেস":8045,"▁বর্ধ":8046,"▁বহি":8047,"am.":8048,"ams":8049,"amom":8050,"ams,":8051,"amun":8052,"amples":8053,"amese,":8054,"amtre.":8055,"▁24%":8056,"▁2%.":8057,"▁26,":8058,"▁26.":8059,"▁27%":8060,"▁27.":8061,"▁28.7":8062,"roid":8063,"roach":8064,"ro-p":8065,"veill":8066,"leav":8067,"leph":8068,"ley)":8069,"েরু":8070,"▁भर":8071,"ce\"":8072,"cept":8073,"ception":8074,"utan":8075,"utch":8076,"utures":8077,"utaries":8078,"▁1901":8079,"▁1911":8080,"▁island":8081,"ist.":8082,"ists,":8083,"istance":8084,"istics":8085,"▁(a":8086,"▁(an":8087,"▁(or":8088,"▁(বি":8089,"▁(1.":8090,"▁(3,":8091,"▁(i)":8092,"▁(alth":8093,"▁(4,":8094,"▁(\".":8095,"▁(400":8096,"▁(after":8097,"▁(ii)":8098,"▁(1,3":8099,"▁(200":8100,"▁(\"b":8101,"▁('E":8102,"▁(GDP":8103,"▁(NDA":8104,"▁([ɦ":8105,"▁(gener":8106,"▁(iii)":8107,"▁(liter":8108,"▁(present":8109,"▁(sine,":8110,"▁Indian,":8111,"▁Indian-own":8112,"asting":8113,"astest":8114,"asties,":8115,"astoral":8116,"aden":8117,"adur":8118,"ada,":8119,"adhav":8120,"adrup":8121,"adu;":8122,"advant":8123,"adasis.":8124,"ims":8125,"imum":8126,"ime,":8127,"imedia":8128,"igin":8129,"igence":8130,"igai":8131,"igarhi,":8132,"geograph":8133,"gebra.":8134,"009.":8135,"00–19":8136,"00–400":8137,"▁thin":8138,"▁thus":8139,"▁thous":8140,"▁thicken":8141,"usic":8142,"ussia,":8143,"▁ভৌগোলিক":8144,"▁Pain":8145,"▁Pud":8146,"▁Proc":8147,"▁Pach":8148,"▁Pash":8149,"▁Panch":8150,"▁Pali":8151,"▁Pandy":8152,"▁Post-":8153,"▁Pyth":8154,"▁Pream":8155,"▁Paul":8156,"▁Peace":8157,"▁Phil":8158,"▁Pāṇ":8159,"▁Primary":8160,"▁Pradesh":8161,"owda":8162,"id,":8163,"ided":8164,"idge":8165,"idate":8166,"iders":8167,"s.)":8168,"untouch":8169,"▁Mong":8170,"▁May":8171,"▁Mult":8172,"▁Minister":8173,"▁Meh":8174,"▁Mani":8175,"▁Migr":8176,"▁Medi":8177,"▁Medic":8178,"▁Meas":8179,"▁Manmo":8180,"▁Mathem":8181,"▁Morarji":8182,"▁Madhav":8183,"▁Music":8184,"▁কি":8185,"▁কয়ে":8186,"▁কাজ":8187,"ithmetic":8188,"ithili,":8189,"▁force":8190,"▁foray":8191,"▁forces":8192,"▁forced":8193,"▁forbade":8194,"ucher":8195,"ucture":8196,"्यु":8197,"▁run":8198,"▁rup":8199,"▁rough":8200,"▁round":8201,"▁rite":8202,"▁rice":8203,"▁rank":8204,"▁rising":8205,"▁rates,":8206,"▁risen":8207,"▁rush":8208,"▁rhyth":8209,"▁ritual":8210,"▁riches":8211,"▁risks":8212,"▁beac":8213,"▁bears":8214,"▁beyond":8215,"ments,":8216,"▁పొ":8217,"▁పాత్ర":8218,"▁పశ్చ":8219,"▁పైగా":8220,"ate.":8221,"ategic,":8222,"▁conif":8223,"▁conqu":8224,"▁condition":8225,"▁consequent":8226,"▁constitutes":8227,"ies;":8228,"opy":8229,"opped.":8230,"operation,":8231,"tions":8232,"tionately":8233,"tionary,":8234,"▁अश":8235,"▁अति":8236,"▁अनेक":8237,"em,":8238,"emale":8239,"▁aspect":8240,"tery":8241,"tered":8242,"teries":8243,"terculture":8244,"▁white":8245,"▁while":8246,"▁whims":8247,"▁stres":8248,"▁still":8249,"▁stup":8250,"▁stage":8251,"▁stable":8252,"▁steat":8253,"▁stood":8254,"▁stands":8255,"▁stamp":8256,"▁strid":8257,"▁stressed":8258,"▁stone":8259,"▁stret":8260,"▁story":8261,"▁stitched":8262,"▁starting":8263,"▁strike":8264,"▁strain":8265,"▁stopped.":8266,"▁moved":8267,"▁moving":8268,"▁mobility":8269,"▁Educ":8270,"▁Eigh":8271,"▁Each":8272,"▁Emb":8273,"▁Epic":8274,"▁Evidence":8275,"▁Esche":8276,"▁Eleph":8277,"▁ভারতকে":8278,"ress,":8279,"resident,":8280,"ారసత్వ":8281,"▁অস":8282,"▁অতি":8283,"▁অত্য":8284,"▁অরণ":8285,"▁অঞ্চলে":8286,"romos":8287,"▁ज़":8288,"▁जमा":8289,"▁नम":8290,"▁नौसेना":8291,"▁बह":8292,"▁बे":8293,"▁बदल":8294,"▁बजट":8295,"ained":8296,"▁वाली":8297,"▁वास्त":8298,"▁এসে":8299,"▁itsel":8300,"▁exceed":8301,"▁exogam":8302,"▁except":8303,"est,":8304,"ests,":8305,"est-growing":8306,"est-B":8307,"▁divided":8308,"▁diclo":8309,"▁diox":8310,"లు.":8311,"hering":8312,"▁Hell":8313,"▁Hyder":8314,"▁Homo":8315,"▁D.":8316,"▁Dog":8317,"▁Dire":8318,"▁Domin":8319,"▁Deter":8320,"▁Domestic":8321,"▁Despite":8322,"▁Dony":8323,"▁DNA":8324,"▁Dhol":8325,"▁God":8326,"▁Govern":8327,"▁Garb":8328,"▁Gov":8329,"▁Group":8330,"▁Ganweri":8331,"▁Gradually":8332,"▁Gowda":8333,"▁anti-":8334,"▁दी":8335,"▁दर्":8336,"▁दिव":8337,"angra":8338,"anges.":8339,"angra,":8340,"या।":8341,"acity":8342,"aces,":8343,"acy.":8344,"acture":8345,"ac-t":8346,"actional":8347,"accines":8348,"dering":8349,"ders,":8350,"ders.":8351,"der's":8352,"derately":8353,"▁মর্য":8354,"▁মাইল":8355,"▁No":8356,"▁Not":8357,"▁Nag":8358,"▁Nav":8359,"▁Nations":8360,"▁Nains":8361,"▁Nax":8362,"▁Naren":8363,"▁Noted":8364,"▁Nadu;":8365,"▁oral":8366,"▁order":8367,"▁orders":8368,"abhat":8369,"aboration":8370,"ial,":8371,"umped":8372,"ght.":8373,"ghanistan":8374,"▁onward":8375,"▁रख":8376,"▁रूस":8377,"illing":8378,"িত্ত":8379,"িতীয়":8380,"ortant":8381,"▁প্রক":8382,"▁প্রবর্ত":8383,"▁প্রভৃতি":8384,"upati":8385,"▁arc":8386,"▁arts":8387,"▁arranged":8388,"▁arrived":8389,"▁array":8390,"▁arithmetic":8391,"▁arteries":8392,"▁20%":8393,"▁2030.":8394,"▁which,":8395,"udra,":8396,"udaism,":8397,"▁ওঠে।":8398,"▁uncon":8399,"▁unif":8400,"▁undis":8401,"▁uneas":8402,"▁uniqu":8403,"▁unlin":8404,"▁univers":8405,"▁unpre":8406,"▁unwanted":8407,"▁unanim":8408,"▁unrest":8409,"▁unleav":8410,"▁আক":8411,"▁আম":8412,"▁আর্থ":8413,"▁আর্ক":8414,"▁আবার":8415,"▁আফ্রিক":8416,"content":8417,"ure-l":8418,"▁area,":8419,"▁areas,":8420,"▁arenas,":8421,"▁parity":8422,"▁paralle":8423,"▁parks":8424,"▁క్య":8425,"aker":8426,"ake.":8427,"akti":8428,"akening":8429,"ock":8430,"ocal":8431,"riti,":8432,"rition,":8433,"lihood":8434,"lian;":8435,"lier.":8436,"▁तीन":8437,"▁तनाव":8438,"▁तुल":8439,"▁तरह":8440,"▁प्रदान":8441,"▁प्रणाली":8442,"anta":8443,"antly":8444,"anticide":8445,"▁inclus":8446,"▁incremental":8447,"over,":8448,"ot.":8449,"ota":8450,"ote":8451,"otal":8452,"oti,":8453,"otta":8454,"othes":8455,"due":8456,"dual":8457,"▁allow":8458,"▁allowing":8459,"▁allu":8460,"▁altern":8461,"▁almond":8462,"▁algebra.":8463,"▁commission":8464,"▁commun":8465,"▁combined":8466,"elag":8467,"ounced":8468,"ounger":8469,"ives,":8470,"ivasa":8471,"▁వహ":8472,"▁వై":8473,"▁వారసత్వ":8474,"▁বিগত":8475,"ended":8476,"ending.":8477,"్యాయ":8478,"▁vulture":8479,"▁vice":8480,"▁value":8481,"▁vulner":8482,"▁vaccines":8483,"▁উভ":8484,"▁উন্ন":8485,"▁উঠে":8486,"▁উত্থান":8487,"▁మే":8488,"▁మాత్ర":8489,"▁से,":8490,"▁With":8491,"▁Wik":8492,"▁When":8493,"▁War,":8494,"▁Web":8495,"▁Widespread":8496,"▁Whether":8497,"chasing":8498,"▁deal":8499,"▁deep":8500,"▁death":8501,"▁deems":8502,"▁debate":8503,"▁deposition":8504,"▁Uday":8505,"▁Utt":8506,"od,":8507,"sie":8508,"sible":8509,"▁core":8510,"▁cooperation":8511,"▁coherent":8512,"▁codified":8513,"▁co-operation":8514,"▁coins.":8515,"న్మ":8516,"▁works":8517,"▁work,":8518,"▁working":8519,"▁works,":8520,"▁worshi":8521,"ours.":8522,"ourse":8523,"ources,":8524,"ogurt":8525,"▁Rig":8526,"▁Ref":8527,"▁Rice":8528,"▁Rann":8529,"▁Ruk":8530,"▁Rakh":8531,"▁Rao,":8532,"▁River":8533,"▁Rāmā":8534,"▁Reserv":8535,"▁Raslila":8536,"▁Russia,":8537,"▁Ridge":8538,"ecting":8539,"ectanc":8540,"▁parties":8541,"▁parties.":8542,"▁partners.":8543,"▁आप":8544,"▁आय":8545,"▁आस":8546,"▁chall":8547,"▁chik":8548,"▁chose":8549,"▁change":8550,"▁chains":8551,"▁changed":8552,"▁chicken":8553,"▁chronic":8554,"▁choic":8555,"▁chatur":8556,"▁choli,":8557,"▁changes.":8558,"▁spok":8559,"▁spite":8560,"▁spons":8561,"▁spices":8562,"▁speed":8563,"▁split":8564,"▁spring,":8565,"▁spiced":8566,"▁spending.":8567,"▁proces":8568,"▁proper":8569,"▁propor":8570,"▁proclaiming":8571,"▁profess":8572,"▁proposed":8573,"▁context":8574,"▁contemporary":8575,"▁contours.":8576,"▁Hindus":8577,"aging":8578,"agore":8579,"ages.":8580,"agupt":8581,"aged.":8582,"agonists":8583,"ousers,":8584,"ousands":8585,"▁atop":8586,"▁attain":8587,"▁atypically":8588,"▁atolls":8589,"agement":8590,"ageable":8591,"▁उसे":8592,"▁उष्ण":8593,"▁రంగ":8594,"▁రకాల":8595,"avily":8596,"avati,":8597,"avari,":8598,"avarsh":8599,"avira,":8600,"ిక,":8601,"ికత":8602,"ిక్":8603,"ctory":8604,"ifically":8605,"ift-h":8606,"ర్జ":8607,"స్,":8608,"lows.":8609,"os:":8610,"os;":8611,"osite":8612,"ालर":8613,"▁लड़ा":8614,"▁लंबे":8615,"ishing":8616,"ishment":8617,"ishya,":8618,"ishvara":8619,"associ":8620,"asslands":8621,"orested,":8622,"▁2010,":8623,"▁2017,":8624,"▁2013.":8625,"▁2018.":8626,"▁2017.":8627,"ামের":8628,"ামান":8629,"▁Jap":8630,"▁Just":8631,"▁Judaism,":8632,"▁Chord":8633,"▁Chronic":8634,"▁Charan":8635,"▁Chaud":8636,"▁Chief":8637,"▁Chromos":8638,"▁Chota":8639,"ution\"":8640,"▁Ksh":8641,"▁Karn":8642,"▁Kingdom":8643,"▁Kann":8644,"▁Key":8645,"▁Krish":8646,"▁Konkani":8647,"▁Karla":8648,"▁Kolkata,":8649,"▁Kutch":8650,"▁perform":8651,"▁pervasive":8652,"▁perhaps":8653,"▁perman":8654,"▁perception":8655,"▁marble":8656,"▁marma":8657,"▁marital":8658,"▁martial":8659,"▁marinade":8660,"▁maritim":8661,"▁economically":8662,"▁form.":8663,"▁forms,":8664,"▁formerly":8665,"▁formations,":8666,"▁formulaic":8667,"apon":8668,"aped":8669,"▁इंद":8670,"▁शक्त":8671,"▁शहर":8672,"▁शक्ति":8673,"▁शहरी":8674,"▁परिण":8675,"▁परीक्ष":8676,"▁regard":8677,"▁regulation":8678,"illion-work":8679,"▁అవ":8680,"▁అని":8681,"▁plural":8682,"▁plants":8683,"▁plann":8684,"▁placed":8685,"▁places,":8686,"▁विरो":8687,"meric,":8688,"న్నాయి.":8689,"▁kabad":8690,"▁killed":8691,"▁keep":8692,"▁knees.":8693,"▁katab":8694,"▁kingly":8695,"▁killing":8696,"▁kriti,":8697,"▁adversity":8698,"▁adverse":8699,"▁adequ":8700,"▁adhered":8701,"▁adherent":8702,"▁adjoin":8703,"▁administer":8704,"▁adhering":8705,"▁clans,":8706,"▁clothes":8707,"▁seen":8708,"▁seas,":8709,"▁sevent":8710,"▁seaf":8711,"▁seals,":8712,"▁sealed":8713,"▁seal,":8714,"▁seeking":8715,"▁segreg":8716,"▁seams":8717,"▁subduc":8718,"▁subord":8719,"▁subcast":8720,"▁subject":8721,"▁subduction":8722,"▁sub-cast":8723,"▁subtropical":8724,"▁subdue":8725,"▁leaf":8726,"▁lexic":8727,"irety.":8728,"কেন্দ্র":8729,"ষ্ণ":8730,"ষ্টি":8731,"▁yards":8732,"▁younger":8733,"▁yogurt":8734,"▁elite":8735,"▁elders.":8736,"▁Viet":8737,"▁Vindh":8738,"▁Virt":8739,"▁V-D":8740,"▁Veda—":8741,"▁Varāham":8742,"ence,":8743,"▁हैं:":8744,"▁Fed":8745,"▁Four":8746,"▁Further":8747,"▁Faith":8748,"▁France,":8749,"▁Ficus":8750,"▁Fully":8751,"▁Futures":8752,"▁Female":8753,"▁গুর":8754,"▁গান্":8755,"enerational":8756,"▁government;":8757,"▁government's":8758,"াতা":8759,"port.":8760,"াব্য":8761,"▁Hindu,":8762,"▁Hindus,":8763,"▁Hindu-majority":8764,"▁Hindu–Ara":8765,"quef":8766,"▁Open":8767,"▁Oriya,":8768,"▁Official":8769,"▁Onions,":8770,"▁Odisha":8771,"▁Olymp":8772,"▁pride,":8773,"▁private":8774,"▁priorities":8775,"▁priests,":8776,"▁decimal":8777,"▁decentral":8778,"▁decisions":8779,"▁decenn":8780,"▁decoration,":8781,"▁decisively":8782,"▁decolonisation":8783,"▁art.":8784,"▁arts,":8785,"▁arts.":8786,"▁artists":8787,"▁artists,":8788,"▁world,":8789,"▁worldwide":8790,"▁region,":8791,"▁regionally":8792,"▁region-sp":8793,"▁যথাক":8794,"oking":8795,"ates.":8796,"▁Asiatic":8797,"ducing":8798,"ewed":8799,"▁Indos":8800,"▁Indoi,":8801,"ome's":8802,"pp=":8803,"pped":8804,"ppayat":8805,"▁traded":8806,"▁training":8807,"▁traders,":8808,"▁aggl":8809,"▁agro-p":8810,"▁symb":8811,"▁syncre":8812,"▁complic":8813,"▁compared":8814,"▁composition":8815,"▁composite":8816,"▁year,":8817,"▁year-r":8818,"ditional":8819,"▁नेहर":8820,"derness":8821,"ियत":8822,"alling":8823,"▁करते":8824,"▁करती":8825,"ffs;":8826,"ffalo":8827,"othing":8828,"▁3%":8829,"▁31,":8830,"▁36%":8831,"▁31.":8832,"▁39%":8833,"▁3,000":8834,"▁31.1":8835,"▁35°":8836,"▁১৮":8837,"▁endogam":8838,"▁endeav":8839,"▁end—passing":8840,"▁shook":8841,"▁shorter":8842,"▁shares":8843,"▁shirt":8844,"▁sharp":8845,"▁सां":8846,"ection.":8847,"ections,":8848,"ectionist":8849,"▁included":8850,"▁included.":8851,"▁5%":8852,"▁53":8853,"▁5th":8854,"▁53%":8855,"▁50,000":8856,"▁5%,":8857,"▁580":8858,"▁522":8859,"▁596":8860,"▁5,42":8861,"▁2003":8862,"▁2001.":8863,"▁2008–2":8864,"ighat":8865,"igned":8866,"ignated":8867,"▁\"out":8868,"▁\"pro":8869,"▁\"no":8870,"▁\"the":8871,"▁\"down":8872,"▁\"Aph":8873,"▁\"Green":8874,"▁\"Min":8875,"▁\"bro":8876,"▁\"national":8877,"▁\"official":8878,"▁\"pure":8879,"▁\"sched":8880,"▁\"river,\"":8881,"▁\"untouch":8882,"▁\"associ":8883,"▁Lal":8884,"▁Lok":8885,"▁Lord":8886,"▁Lond":8887,"▁Lef":8888,"▁Lao":8889,"▁Liber":8890,"▁Local":8891,"▁यहाँ":8892,"▁overall":8893,"▁overlaps":8894,"▁reserv":8895,"▁reserved":8896,"▁resources":8897,"▁reserve":8898,"▁resentments":8899,"▁resurgence":8900,"▁resolution":8901,"▁resistance":8902,"▁resources,":8903,"▁system's":8904,"▁systematic":8905,"▁7%":8906,"▁70":8907,"▁7′":8908,"▁74%":8909,"▁79.":8910,"▁7%,":8911,"▁700–400":8912,"hip":8913,"▁ची":8914,"నిస్త":8915,"▁rivers":8916,"▁rigid":8917,"▁had,":8918,"▁সংস্কার":8919,"ational,":8920,"▁राजवं":8921,"ন্দি":8922,"▁Under":8923,"▁Until":8924,"▁Untouchability":8925,"াহি":8926,"▁46%":8927,"▁45.":8928,"▁49.":8929,"▁41%":8930,"▁43%":8931,"▁40,000":8932,"▁41.1":8933,"▁431":8934,"▁44′":8935,"▁1957,":8936,"▁1956,":8937,"ాయక":8938,"ineal":8939,"ineering":8940,"▁1967,":8941,"▁1962,":8942,"▁1966,":8943,"▁1964,":8944,"▁1962.":8945,"▁1964–201":8946,"dhanar":8947,"ricity":8948,"rict,":8949,"rictions":8950,"▁infections":8951,"▁infrastruc":8952,"▁infanticide":8953,"▁inflows.":8954,"▁infection.":8955,"▁superi":8956,"▁meal":8957,"▁meet":8958,"▁median":8959,"▁measures":8960,"▁meets":8961,"▁measured":8962,"▁consci":8963,"▁conserv":8964,"▁conspic":8965,"▁consistent":8966,"▁moreover,":8967,"▁religions,":8968,"▁South,":8969,"ाषी":8970,"▁after;":8971,"▁afterward":8972,"atics":8973,"▁peak":8974,"▁peep":8975,"▁pehl":8976,"▁peasants":8977,"▁million-pl":8978,"▁minister;":8979,"▁numerous":8980,"▁generic":8981,"▁generation":8982,"▁generate":8983,"▁generally":8984,"▁generally,":8985,"▁modern,":8986,"▁modern-day":8987,"▁increase":8988,"ound.":8989,"▁থাক":8990,"▁2024":8991,"▁2026":8992,"▁2021,":8993,"▁2020.":8994,"▁2023,":8995,"▁2024.":8996,"▁2026.":8997,"▁2024,":8998,"shali":8999,"▁সময়ে":9000,"▁সমগ্র":9001,"▁সম্ম":9002,"▁इसे":9003,"▁इसका":9004,"▁इसमें":9005,"▁इस्ल":9006,"ptember":9007,"▁here.":9008,"▁helped":9009,"▁heart":9010,"▁heavily":9011,"▁impor":9012,"▁immense":9013,"▁imitated":9014,"▁care.":9015,"▁caret":9016,"▁long.":9017,"▁long-l":9018,"▁longitud":9019,"▁long-ter":9020,"▁समझ":9021,"▁समृद्ध":9022,"▁1994":9023,"▁1995.":9024,"▁1991.":9025,"▁1996,":9026,"▁1998.":9027,"▁ruler":9028,"▁rule,":9029,"▁rulers":9030,"▁rulers,":9031,"▁dispro":9032,"▁disband":9033,"▁disrupt":9034,"▁dishes.":9035,"▁disadvant":9036,"▁discontent":9037,"▁tradition.":9038,"▁traditions,":9039,"కుంట":9040,"▁ইটাল":9041,"renched":9042,"rence\"":9043,"itions":9044,"▁Congress's":9045,"▁Congress\")":9046,"▁করেছে":9047,"▁করেছিল":9048,"▁করেন।":9049,"phies.":9050,"phin.":9051,"▁१५":9052,"▁castes,":9053,"▁caste,":9054,"▁caste.":9055,"▁science.":9056,"▁series":9057,"▁series.":9058,"▁serving":9059,"▁socially":9060,"▁socio-":9061,"▁BCE)":9062,"▁BCE;":9063,"▁BCE),":9064,"istan,":9065,"▁Empire,":9066,"▁Empires.":9067,"▁Empire);":9068,"▁under,":9069,"▁under-f":9070,"▁underground":9071,"▁underskir":9072,"▁underwent":9073,"▁classes.":9074,"ika":9075,"eper":9076,"াদা":9077,"াদি":9078,"াদে":9079,"াদের":9080,"▁Any":9081,"▁Anth":9082,"▁Convention":9083,"▁Concur":9084,"ians.)":9085,"incely":9086,"▁British,":9087,"roughout":9088,"▁urban;":9089,"ondrial":9090,"▁counted":9091,"▁council":9092,"▁counterculture":9093,"▁offer":9094,"▁officially":9095,"isation,":9096,"▁notably":9097,"▁grown":9098,"▁growing,":9099,"▁growing.":9100,"▁expected":9101,"▁experi":9102,"▁expendi":9103,"▁expanded":9104,"▁expectanc":9105,"▁elections,":9106,"▁population.":9107,"▁number,":9108,"▁Buddha.":9109,"াপক":9110,"ৃত।":9111,"▁ఇవ":9112,"▁जाति":9113,"▁হয়,":9114,"0,19":9115,"6%;":9116,"efined":9117,"efinite":9118,"▁২৮":9119,"enges":9120,"▁নিদর্শ":9121,"loor":9122,"ellate":9123,"▁terrac":9124,"▁folk,":9125,"▁landed":9126,"▁landsl":9127,"▁landown":9128,"▁landmas":9129,"▁landmar":9130,"▁earth.":9131,"▁dance,":9132,"▁dance.":9133,"▁recording":9134,"▁recommend":9135,"▁recourse":9136,"▁northeast":9137,"▁north.":9138,"▁north;":9139,"▁north-w":9140,"▁north-east":9141,"▁होना":9142,"ribes":9143,"▁began,":9144,"▁began.":9145,"▁1946":9146,"▁1949":9147,"▁1949.":9148,"▁1947.":9149,"▁১৯৪৭":9150,"▁থেকেই":9151,"mons":9152,"monary":9153,"nized":9154,"vious":9155,"view":9156,"తి,":9157,"▁উপগ্রহ":9158,"ciary":9159,"িয়ান":9160,"▁jean":9161,"▁join":9162,"▁judi":9163,"▁jaz":9164,"▁jatis":9165,"▁raw":9166,"▁raising":9167,"▁raga":9168,"▁raiding":9169,"▁raksha":9170,"▁rainfall":9171,"▁rarely":9172,"▁raiders":9173,"▁upon":9174,"▁upsur":9175,"▁appare":9176,"▁appellate":9177,"▁18,":9178,"▁1820":9179,"▁18%,":9180,"▁18.1":9181,"▁1848":9182,"▁1885.":9183,"▁1891,":9184,"▁repuls":9185,"▁repressive":9186,"▁replaced":9187,"▁Pakistan's":9188,"▁economic,":9189,"▁economics.":9190,"▁later.":9191,"▁caste-b":9192,"▁caste-re":9193,"▁निम्":9194,"▁দেশজ":9195,"▁দেশীয়":9196,"7,663":9197,"▁চীন":9198,"ard;":9199,"▁ఆక్రమ":9200,"▁ఆఫ్":9201,"▁CE)":9202,"▁CE),":9203,"▁CE).":9204,"ularities":9205,"awed":9206,"away":9207,"peratures":9208,"▁there.":9209,"▁thereby":9210,"▁absol":9211,"▁abjured":9212,"▁absence":9213,"▁abolished":9214,"▁secure":9215,"▁powers":9216,"▁humped":9217,"▁humid,":9218,"▁Almost":9219,"raph—w":9220,"▁specifically":9221,"▁subcontinent.":9222,"▁subcontinent's":9223,"▁peoples,":9224,"▁countries":9225,"▁countries.":9226,"velopment":9227,"ల్లో":9228,"▁Three":9229,"▁Thanjav":9230,"▁Thousands":9231,"▁Throughout":9232,"S$3.":9233,"▁খনি":9234,"▁Most":9235,"▁Movement":9236,"▁Moderately":9237,"ामस्व":9238,"ative,":9239,"ised,":9240,"exe":9241,"place":9242,"roleum":9243,"sliding":9244,"ty-n":9245,"ty—ex":9246,"▁63":9247,"▁6°":9248,"▁65.":9249,"▁63.8":9250,"▁6.0%":9251,"▁68°":9252,"hemical":9253,"▁course":9254,"▁courts":9255,"▁court,":9256,"ari;":9257,"arippayat":9258,"▁war,":9259,"▁war.":9260,"▁wars":9261,"▁wars.":9262,"▁warmer":9263,"▁musical":9264,"▁musics":9265,"▁mid-m":9266,"▁midriff":9267,"▁militants":9268,"▁emerging":9269,"▁emergence":9270,"▁emergency,":9271,"▁history":9272,"▁histories":9273,"▁history.":9274,"▁newly":9275,"▁nuclear-we":9276,"▁1981":9277,"▁1980.":9278,"▁1985.":9279,"▁1984.":9280,"▁1988.":9281,"▁1989,":9282,"▁1985;":9283,"▁state.":9284,"▁state:":9285,"▁state's":9286,"▁develop.":9287,"▁developing":9288,"▁developed,":9289,"▁China.":9290,"▁Chinese":9291,"▁largest,":9292,"▁largest.":9293,"▁river,":9294,"▁river-b":9295,"▁people,":9296,"▁people.":9297,"▁Mughals":9298,"▁Mahat":9299,"▁Mahan":9300,"▁Mahā":9301,"▁Mahav":9302,"▁Maoist":9303,"▁Maithili,":9304,"▁నా":9305,"▁న్యాయ":9306,"▁US$3,":9307,"▁US$42":9308,"▁US$64":9309,"▁US$1,3":9310,"▁US$30":9311,"▁US$24.4":9312,"▁2011.":9313,"5.24":9314,"essed":9315,"▁12%":9316,"▁12.6%":9317,"▁12.2%":9318,"▁1206.":9319,"▁Statist":9320,"▁राज्यसभा":9321,"▁Sanskrit)":9322,"▁Sanskrit.":9323,"tenment.":9324,"ंधु":9325,"ంటే":9326,"▁them,":9327,"▁setback":9328,"▁settling":9329,"▁basin":9330,"▁basin,":9331,"▁basis.":9332,"▁basin.":9333,"▁refined":9334,"▁non-European":9335,"▁non-economic":9336,"▁non-Muslim":9337,"▁non-tra":9338,"vement;":9339,"▁thought,":9340,"▁throughout":9341,"▁constitution)":9342,"▁constitution,":9343,"▁East,":9344,"ography":9345,"▁leads":9346,"▁leader":9347,"▁socialist":9348,"▁Bengal,":9349,"▁Bengal.":9350,"▁Bengal;":9351,"▁Bengali,":9352,"▁Bengaluru,":9353,"▁Punjabi":9354,"▁Punjabi,":9355,"ము.":9356,"ములో":9357,"▁9%":9358,"▁9th":9359,"▁900":9360,"▁93.":9361,"▁9%.":9362,"▁940":9363,"▁9.3":9364,"▁97°":9365,"▁1972,":9366,"▁1970–19":9367,"▁విభ":9368,"▁విస్త":9369,"ుతున్న":9370,"▁గు":9371,"▁గో":9372,"▁సంక":9373,"▁సంఘ":9374,"▁సంవత్":9375,"▁సంప్రదాయ":9376,"▁उत्":9377,"▁Comprehen":9378,"tailed":9379,"▁8th":9380,"▁800":9381,"▁80,000":9382,"▁82.":9383,"▁8.6%":9384,"▁trousers,":9385,"▁others.":9386,"▁crises":9387,"▁crisis":9388,"▁signing":9389,"▁billion.":9390,"▁prefer":9391,"▁precise":9392,"▁pre-ex":9393,"▁prepared":9394,"▁prevail":9395,"▁preyed":9396,"▁previous":9397,"▁mainland":9398,"▁maintains":9399,"▁mainstream":9400,"▁millennium,":9401,"▁millennium.":9402,"▁farther":9403,"▁far-f":9404,"▁far-ri":9405,"▁faraway":9406,"▁grands":9407,"▁granted":9408,"▁grandmast":9409,"▁grasslands":9410,"▁grazed":9411,"▁gramm":9412,"▁grain-pro":9413,"▁gradual":9414,"▁Sikkim":9415,"rochemical":9416,"▁rural-urban":9417,"▁direction":9418,"▁directions":9419,"▁one's":9420,"ritory":9421,"▁defeat":9422,"▁defined":9423,"▁defining":9424,"▁deforested,":9425,"▁defence,":9426,"▁Asia's":9427,"▁Asia—dates":9428,"▁Indus;":9429,"▁Indus'.":9430,"▁Indo-Isl":9431,"▁religiosa,":9432,"▁politics":9433,"▁served,":9434,"▁forests":9435,"▁musicians":9436,"▁life;":9437,"▁life-f":9438,"ीं।":9439,"াগরে":9440,"▁cold":9441,"▁पूरा":9442,"▁पूरे":9443,"भाग":9444,"▁Shank":9445,"▁Shalw":9446,"▁Shaiv":9447,"▁Shudra,":9448,"▁Energy":9449,"ruments":9450,"लीवि":9451,"▁বৃদ্ধির":9452,"▁सामरिक":9453,"క్షరా":9454,"▁Plate,":9455,"19th":9456,"mittent":9457,"odiment":9458,"odia,":9459,"odilian;":9460,"puted":9461,"vide,":9462,"vidual":9463,"िमण्ड":9464,"▁२४":9465,"▁enligh":9466,"▁envir":9467,"▁using":9468,"▁usage":9469,"▁ushered":9470,"▁output":9471,"▁outside":9472,"▁outpost":9473,"▁Islands":9474,"▁Islam.":9475,"▁culture,":9476,"▁culture;":9477,"▁culture—to":9478,"▁weight":9479,"▁wealth":9480,"▁weakening":9481,"▁widely,":9482,"▁surpassing":9483,"▁surround":9484,"▁surveill":9485,"▁found,":9486,"▁founded":9487,"▁founding":9488,"▁foundation":9489,"▁foundations":9490,"▁locations":9491,"▁greatly":9492,"▁Central,":9493,"▁भाषाएं":9494,"▁Muslims":9495,"▁Muslims,":9496,"▁Muslim-majority":9497,"▁Gandhi,":9498,"▁centralised,":9499,"▁coal-r":9500,"▁coalesc":9501,"▁coast;":9502,"▁coasts":9503,"▁coasts.":9504,"▁controlled":9505,"▁Jain.":9506,"▁Jains,":9507,"▁Jainism.":9508,"▁economy;":9509,"▁plain,":9510,"▁plain.":9511,"▁plainly":9512,"▁plains.":9513,"▁विशेष":9514,"▁growth.":9515,"▁territory":9516,"▁following,":9517,"▁following:":9518,"▁country.":9519,"▁courtesans":9520,"▁emerged,":9521,"▁emerged.":9522,"▁Company's":9523,"▁Company—sol":9524,"▁transmission":9525,"▁translating":9526,"▁transactional":9527,"▁Sikh,":9528,"▁Sikhism":9529,"▁Sikhism,":9530,"▁Sikhism.":9531,"▁religious-":9532,"▁women,":9533,"▁সরকারের":9534,"టిలో":9535,"▁17)":9536,"▁172":9537,"▁1765":9538,"nological":9539,"విస్త":9540,"▁Europe,":9541,"achings":9542,"▁సాం":9543,"▁సాంప":9544,"-settled":9545,"-serving":9546,"-sided":9547,"JP);":9548,"af.":9549,"arett":9550,"ointed":9551,"volution\"":9552,"yaṇa,":9553,"সংক্রান্ত":9554,"▁|co":9555,"▁|nop":9556,"▁|publisher":9557,"▁entered":9558,"▁entrepren":9559,"▁entirety.":9560,"▁entrenched":9561,"▁herbal":9562,"▁herds":9563,"▁heritage":9564,"anking":9565,"ankari;":9566,"▁origins,":9567,"▁originated":9568,"▁capped":9569,"▁capability":9570,"▁capacity":9571,"▁industry,":9572,"▁bias,":9573,"▁biological":9574,"▁biosphere":9575,"▁birch":9576,"▁biryan":9577,"▁featuring":9578,"▁lie":9579,"▁liquef":9580,"▁drawn":9581,"▁draped.":9582,"▁drafted":9583,"▁drawstr":9584,"▁need":9585,"▁neither":9586,"▁negative":9587,"▁neolith":9588,"▁neem,":9589,"▁पाया":9590,"istic,":9591,"undale":9592,"▁states,":9593,"▁statistics":9594,"▁movements.":9595,"▁exporting":9596,"▁animals,":9597,"▁army":9598,"▁archip":9599,"▁devdas":9600,"▁devadasis.":9601,"▁party;":9602,"▁Hindi,":9603,"▁Hindi's":9604,"▁marries":9605,"▁marriageable":9606,"▁legal":9607,"▁legacy.":9608,"▁support,":9609,"▁sculpting":9610,"▁sculptors":9611,"▁majority.":9612,"▁Constitution.":9613,"▁second-f":9614,"▁occupy":9615,"▁occupies":9616,"▁occupational":9617,"▁occupying":9618,"▁occupations.":9619,"▁directors":9620,"▁directives,":9621,"▁local,":9622,"▁localised":9623,"▁Gandhi.":9624,"▁Gandhian":9625,"▁painting.":9626,"▁Nehru,":9627,"▁Nehru's":9628,"▁English,":9629,"बंधीय":9630,"▁Yamun":9631,"▁फैली":9632,"▁15th":9633,"▁1500":9634,"▁15(2)":9635,"▁1525":9636,"▁মহান":9637,"▁প্রতিযোগিত":9638,"াইভকৃত":9639,"▁1,42":9640,"▁1,21":9641,"▁September":9642,"▁దేశాలలో":9643,"▁Tamil.":9644,"cent-sh":9645,"mini":9646,"mined":9647,"minster":9648,"▁rocked":9649,"strung":9650,"atiya":9651,"▁carry":9652,"▁carbon":9653,"▁carrion":9654,"▁carried":9655,"▁well,":9656,"▁well.":9657,"▁well-reg":9658,"▁well-settled":9659,"▁indefinite":9660,"▁interest":9661,"▁intervene":9662,"▁intervals":9663,"▁intermittent":9664,"▁smooth":9665,"▁smoking":9666,"▁sultanate,":9667,"▁sultanate's":9668,"▁promised":9669,"▁promotion":9670,"▁promulgation":9671,"▁promote":9672,"▁peninsula":9673,"▁low.":9674,"▁low;":9675,"▁low-inc":9676,"▁lowest,":9677,"▁lowered":9678,"▁lower-body":9679,"▁1.3":9680,"▁1.4":9681,"▁1.5":9682,"▁1.7%":9683,"▁1.24":9684,"▁1.6%;":9685,"▁nationalism.":9686,"▁Biosphere":9687,"▁Bibli":9688,"▁BJP,":9689,"▁ব্যবহ":9690,"▁ব্যাপক":9691,"amma":9692,"legal":9693,"legraph—w":9694,"▁rates).":9695,"▁states.":9696,"▁states:":9697,"▁executives":9698,"▁continue":9699,"▁continental":9700,"▁severe":9701,"▁severity":9702,"▁languages:":9703,"▁languages\".":9704,"▁decline":9705,"▁declining":9706,"▁declares":9707,"▁declined,":9708,"▁popular.":9709,"▁popularity":9710,"▁endemic":9711,"▁endemism":9712,"▁endemics":9713,"▁endemism.":9714,"▁endemic,":9715,"▁endemic.":9716,"▁Buddhist,":9717,"▁Buddhists.":9718,"▁earlier":9719,"▁republic.":9720,"▁republic;":9721,"▁influences,":9722,"▁China's":9723,"▁রাজ্যে":9724,"▁styles.":9725,"▁mathematics.":9726,"▁technological":9727,"▁technology,":9728,"▁Persia.":9729,"▁education,":9730,"▁Andaman,":9731,"▁Andamanese,":9732,"ంచి":9733,"racing":9734,"▁ভাষার":9735,"▁భాగ":9736,"▁రైళ్ల":9737,"०००":9738,"গতভাবে":9739,"incial":9740,"inces,":9741,"▁সর্বো":9742,"▁1935":9743,"▁1935,":9744,"▁1935.":9745,"▁News":9746,"▁Newly":9747,"▁Rajya":9748,"-market":9749,"-million-work":9750,"ahism,":9751,"adi,":9752,"adily":9753,"eaking":9754,"geny,":9755,"ture.":9756,"valli":9757,"wani":9758,"wanis":9759,"wanathan":9760,"ভূম":9761,"▁zones":9762,"▁zeb":9763,"▁zoo":9764,"▁zone.":9765,"▁zero":9766,"▁temple":9767,"▁tribes":9768,"▁tributaries":9769,"▁texts,":9770,"▁affected":9771,"▁oblig":9772,"▁old.":9773,"▁current":9774,"▁curtailed":9775,"▁civilisation":9776,"arsis":9777,"▁winter":9778,"▁winning":9779,"▁west,":9780,"▁west;":9781,"▁individual":9782,"▁singers.":9783,"▁scholars,":9784,"ors=":9785,"orship":9786,"▁blouse":9787,"▁blurred":9788,"▁block":9789,"▁members":9790,"▁flanked":9791,"▁flawed":9792,"▁flanking":9793,"▁faster":9794,"▁fast-growing":9795,"▁fastening.":9796,"▁fastest-growing":9797,"▁faces":9798,"▁facilitated":9799,"▁families.":9800,"▁ethnic":9801,"▁ethically,":9802,"▁ethos.":9803,"▁empire's":9804,"▁everywhere":9805,"▁सिंधु":9806,"▁dominions,":9807,"▁rendering":9808,"▁genetic":9809,"▁genders":9810,"▁genres,":9811,"▁garments":9812,"▁garment,":9813,"▁garment.":9814,"▁globally.":9815,"▁Afghanistan":9816,"▁Aravall":9817,"▁Aravalli":9818,"▁Bharatiya":9819,"▁2.5":9820,"▁2.3%":9821,"▁2.9%":9822,"▁three-t":9823,"▁conduct,":9824,"▁structure":9825,"▁strategic,":9826,"▁distance,":9827,"▁district,":9828,"▁annexe":9829,"▁villages":9830,"▁villages.":9831,"▁variations":9832,"▁varied,":9833,"▁variety":9834,"▁charts,":9835,"▁chartered":9836,"▁protagonists":9837,"▁protectionist":9838,"▁Kashmiri,":9839,"▁kingdoms.":9840,"▁administrative":9841,"▁administration,":9842,"▁administrator":9843,"▁completed":9844,"▁complete":9845,"▁complemented":9846,"▁considered":9847,"▁considering":9848,"▁religions:":9849,"▁policies,":9850,"▁causes":9851,"▁causing":9852,"▁cause.":9853,"स्कृतिक":9854,"▁రాష్ట్రాల":9855,"▁రాష్ట్రాలు":9856,"▁estimating":9857,"▁establishment":9858,"▁significantly":9859,"▁employing":9860,"▁employment":9861,"▁groups":9862,"▁groups,":9863,"▁groupings":9864,"▁survive":9865,"▁survived":9866,"▁surviving":9867,"▁births":9868,"▁births.":9869,"▁birthplace":9870,"▁liberty":9871,"▁liberties.":9872,"▁differences":9873,"▁legislative":9874,"▁legislation,":9875,"▁legislatures":9876,"▁sculpture,":9877,"▁rocky":9878,"▁Persianised":9879,"▁Persian-der":9880,"▁Brahmin,":9881,"▁Brahmanism,":9882,"▁Brahmagupt":9883,"▁डालर":9884,"▁లే":9885,"▁లక్ష":9886,"▁Art,":9887,"▁Ardhanar":9888,"▁Arundale":9889,"▁Press,":9890,"▁President":9891,"▁President,":9892,"▁बढ़ती":9893,"▁হয়েছিল":9894,"▁দ্বারা":9895,"▁দ্বিতীয়":9896,"▁उपयोग":9897,"▁భారతదేశపు":9898,"8,62":9899,"পিপি":9900,"ణాసియా":9901,"▁छोटे":9902,"▁ঘোষ":9903,"▁లోక్":9904,"▁ముంబ":9905,"▁Rebellion":9906,"▁Reorgan":9907,"▁Report.":9908,"▁Revolution\"":9909,"20th":9910,"204.4":9911,"casts":9912,"castes\"":9913,"p.\")":9914,"portionately":9915,"atory":9916,"atory.":9917,"▁1300":9918,"▁मिला":9919,"▁Assamese,":9920,"▁Singh,":9921,"▁Desai":9922,"▁Desert":9923,"▁संघीय":9924,"▁50–60%":9925,"cessful":9926,"-rule,":9927,"-rumped":9928,"han,":9929,"i-Pol":9930,"line.":9931,"teenth-largest":9932,"ticoat":9933,"कालीन":9934,"কালের":9935,"ాన్,":9936,"▁era,":9937,"▁vehic":9938,"▁quite":9939,"▁quality":9940,"▁quarter":9941,"▁quadrup":9942,"▁turn":9943,"▁turmeric,":9944,"▁taxes":9945,"▁taxation":9946,"▁taxes,":9947,"▁taxpay":9948,"discrimin":9949,"▁canon":9950,"▁canalled":9951,"▁canals,":9952,"▁canopy":9953,"▁cheap":9954,"▁checked":9955,"▁culturally":9956,"▁writing,":9957,"▁wear,":9958,"▁wearer's":9959,"▁waist.":9960,"▁waistline.":9961,"▁sojour":9962,"▁summary":9963,"▁safety":9964,"▁body's":9965,"▁bodyguard":9966,"▁practice":9967,"▁practices":9968,"▁management":9969,"▁monkey":9970,"▁montan":9971,"▁multiple":9972,"▁multilingual":9973,"▁famine":9974,"▁famines,":9975,"▁loyal":9976,"▁layered":9977,"▁equates":9978,"▁equator":9979,"▁equival":9980,"▁equalling":9981,"▁derives":9982,"▁derived":9983,"▁deriving":9984,"▁derecog":9985,"▁retreat":9986,"▁natural":9987,"▁nearly":9988,"▁near-di":9989,"▁Bhaskara":9990,"▁Bhutan":9991,"▁Bhangra":9992,"▁Bhakti":9993,"▁(ca.":9994,"▁ভূখণ্ড":9995,"▁Party":9996,"▁Party,":9997,"▁Parche":9998,"▁Parvati.":9999}